[PAD]	0
[UNK]	0
[BOS]	0
[EOS]	0
he	-0
▁t	-1
▁a	-2
▁s	-3
▁w	-4
nd	-5
▁the	-6
ed	-7
▁and	-8
▁to	-9
▁b	-10
in	-11
▁h	-12
▁wa	-13
re	-14
ou	-15
▁f	-16
it	-17
▁T	-18
▁l	-19
▁c	-20
▁d	-21
er	-22
▁he	-23
▁m	-24
▁p	-25
▁was	-26
om	-27
▁o	-28
ay	-29
▁The	-30
ar	-31
is	-32
ing	-33
il	-34
▁g	-35
id	-36
▁S	-37
at	-38
en	-39
▁n	-40
▁sa	-41
▁ha	-42
an	-43
im	-44
or	-45
on	-46
▁it	-47
▁th	-48
▁H	-49
ll	-50
le	-51
▁"	-52
▁her	-53
ot	-54
et	-55
▁She	-56
ir	-57
▁He	-58
▁They	-59
es	-60
▁in	-61
ver	-62
ut	-63
ow	-64
ck	-65
▁L	-66
▁e	-67
▁u	-68
ld	-69
▁y	-70
oo	-71
▁said	-72
ig	-73
ily	-74
▁r	-75
▁be	-76
▁I	-77
am	-78
▁st	-79
ce	-80
ke	-81
▁she	-82
ve	-83
pp	-84
ith	-85
▁with	-86
▁O	-87
▁On	-88
▁on	-89
▁Lily	-90
▁you	-91
▁of	-92
ked	-93
ri	-94
▁so	-95
nt	-96
▁his	-97
▁pl	-98
ad	-99
▁B	-100
very	-101
▁day	-102
▁that	-103
▁up	-104
▁play	-105
▁had	-106
st	-107
▁they	-108
▁we	-109
▁mom	-110
▁M	-111
▁for	-112
el	-113
un	-114
ould	-115
my	-116
▁li	-117
ch	-118
ent	-119
▁happ	-120
▁want	-121
itt	-122
▁sh	-123
out	-124
her	-125
▁do	-126
ly	-127
▁not	-128
ome	-129
se	-130
▁very	-131
ound	-132
end	-133
all	-134
▁wh	-135
ime	-136
ittle	-137
▁k	-138
▁time	-139
▁little	-140
al	-141
▁there	-142
▁ne	-143
▁A	-144
ht	-145
▁re	-146
▁It	-147
▁happy	-148
▁sm	-149
▁big	-150
▁is	-151
▁but	-152
ack	-153
▁an	-154
▁saw	-155
riend	-156
▁friend	-157
."	-158
▁as	-159
ry	-160
ra	-161
ide	-162
▁One	-163
ake	-164
!"	-165
ug	-166
▁Tim	-167
▁loo	-168
ved	-169
ter	-170
▁were	-171
ore	-172
▁Once	-173
▁lo	-174
▁J	-175
ec	-176
▁him	-177
▁too	-178
▁go	-179
▁bo	-180
▁se	-181
irl	-182
▁are	-183
▁j	-184
ard	-185
▁wanted	-186
ill	-187
▁girl	-188
▁upon	-189
▁out	-190
▁them	-191
▁Tom	-192
▁at	-193
ur	-194
ind	-195
▁their	-196
fu	-197
▁sp	-198
▁Ben	-199
way	-200
▁smil	-201
▁did	-202
▁could	-203
hen	-204
▁have	-205
ain	-206
art	-207
▁ex	-208
hed	-209
rom	-210
▁went	-211
▁ar	-212
ic	-213
▁can	-214
▁W	-215
lp	-216
ful	-217
ood	-218
?"	-219
hing	-220
▁friends	-221
▁nam	-222
▁But	-223
ight	-224
▁all	-225
▁help	-226
▁kn	-227
um	-228
one	-229
ark	-230
▁back	-231
▁say	-232
You	-233
▁fun	-234
▁cl	-235
are	-236
▁no	-237
▁le	-238
▁Timmy	-239
op	-240
▁smiled	-241
▁sc	-242
▁named	-243
▁al	-244
oug	-245
▁loved	-246
side	-247
elt	-248
▁man	-249
▁asked	-250
ick	-251
▁toy	-252
▁like	-253
▁fe	-254
▁felt	-255
▁looked	-256
▁some	-257
▁around	-258
▁see	-259
▁me	-260
ame	-261
omet	-262
▁ro	-263
▁br	-264
ure	-265
▁bir	-266
get	-267
ice	-268
▁boy	-269
▁would	-270
▁start	-271
ong	-272
ss	-273
▁bird	-274
▁somet	-275
▁fa	-276
dd	-277
ings	-278
▁ag	-279
▁wor	-280
▁what	-281
▁Mom	-282
ade	-283
▁make	-284
king	-285
,"	-286
ie	-287
own	-288
▁tre	-289
▁ran	-290
gether	-291
▁You	-292
▁away	-293
ag	-294
ared	-295
▁says	-296
▁started	-297
oud	-298
if	-299
▁made	-300
▁car	-301
▁something	-302
▁together	-303
ited	-304
ther	-305
▁park	-306
▁co	-307
▁sad	-308
▁other	-309
▁new	-310
▁E	-311
▁exc	-312
▁put	-313
▁from	-314
▁pr	-315
ell	-316
▁la	-317
▁hug	-318
ble	-319
▁mu	-320
ook	-321
ach	-322
▁again	-323
▁home	-324
▁F	-325
▁when	-326
▁good	-327
ep	-328
hat	-329
▁who	-330
est	-331
ried	-332
▁found	-333
▁fl	-334
▁then	-335
▁ch	-336
▁dec	-337
pped	-338
▁wal	-339
as	-340
▁D	-341
▁get	-342
qu	-343
▁playing	-344
ought	-345
pl	-346
ally	-347
▁sw	-348
▁Su	-349
ous	-350
nn	-351
▁things	-352
▁excited	-353
▁liked	-354
▁got	-355
uck	-356
ro	-357
▁Sam	-358
ided	-359
▁decided	-360
▁bl	-361
ave	-362
▁came	-363
▁every	-364
ara	-365
▁your	-366
ax	-367
▁v	-368
▁scared	-369
ust	-370
▁Ann	-371
▁one	-372
▁dog	-373
▁down	-374
ny	-375
ouse	-376
▁find	-377
▁care	-378
▁bec	-379
ist	-380
▁than	-381
▁feel	-382
ap	-383
▁dad	-384
▁Sara	-385
▁ab	-386
▁my	-387
▁look	-388
▁ke	-389
our	-390
▁Anna	-391
▁will	-392
arn	-393
▁gr	-394
nder	-395
▁Max	-396
▁gra	-397
ways	-398
ess	-399
▁didn	-400
▁po	-401
fe	-402
▁always	-403
▁took	-404
▁about	-405
ant	-406
bb	-407
▁mommy	-408
▁lot	-409
▁kne	-410
▁toys	-411
ers	-412
ise	-413
▁So	-414
▁bu	-415
▁outside	-416
ite	-417
▁tree	-418
▁thought	-419
▁ball	-420
▁more	-421
eci	-422
ened	-423
ched	-424
▁ta	-425
▁old	-426
▁ho	-427
▁learn	-428
ret	-429
▁int	-430
ged	-431
▁When	-432
▁pu	-433
▁know	-434
▁Jo	-435
▁laug	-436
▁take	-437
ecial	-438
▁special	-439
▁sor	-440
dden	-441
▁cat	-442
▁knew	-443
ive	-444
▁Her	-445
▁pe	-446
ia	-447
ddenly	-448
▁any	-449
▁tr	-450
fter	-451
▁how	-452
au	-453
ma	-454
▁show	-455
ink	-456
▁sorry	-457
▁tw	-458
▁much	-459
▁Jack	-460
ish	-461
▁run	-462
and	-463
▁Every	-464
▁hand	-465
▁sl	-466
ven	-467
▁house	-468
▁or	-469
▁op	-470
▁sk	-471
▁mo	-472
▁clo	-473
▁sun	-474
▁into	-475
▁tried	-476
▁inside	-477
ate	-478
▁told	-479
▁water	-480
▁en	-481
▁this	-482
ank	-483
▁if	-484
ump	-485
▁proud	-486
▁qu	-487
▁over	-488
▁couldn	-489
dy	-490
▁gave	-491
▁heard	-492
▁never	-493
by	-494
▁each	-495
ace	-496
▁room	-497
ty	-498
▁expl	-499
here	-500
▁eat	-501
▁Suddenly	-502
▁We	-503
other	-504
ause	-505
▁pick	-506
ion	-507
▁pret	-508
▁played	-509
ge	-510
etter	-511
▁Then	-512
▁just	-513
ak	-514
▁hugged	-515
▁gre	-516
▁Mia	-517
▁off	-518
▁com	-519
▁wat	-520
oth	-521
▁box	-522
▁From	-523
▁nice	-524
ue	-525
▁because	-526
▁str	-527
▁need	-528
▁His	-529
ile	-530
▁many	-531
▁And	-532
▁fo	-533
uc	-534
▁jo	-535
▁bear	-536
▁small	-537
iz	-538
▁long	-539
ving	-540
ine	-541
sed	-542
gry	-543
ort	-544
imal	-545
▁animal	-546
▁sn	-547
ough	-548
▁try	-549
▁unt	-550
ild	-551
sel	-552
urt	-553
▁C	-554
▁until	-555
▁kind	-556
▁learned	-557
▁im	-558
▁â	-559
▁love	-560
▁better	-561
ft	-562
▁flow	-563
▁call	-564
▁don	-565
▁end	-566
▁ad	-567
▁best	-568
vent	-569
Yes	-570
ars	-571
urp	-572
ady	-573
em	-574
ream	-575
aut	-576
urn	-577
▁cle	-578
ves	-579
arden	-580
▁garden	-581
▁fast	-582
▁cu	-583
ber	-584
▁careful	-585
lly	-586
▁beaut	-587
▁even	-588
pt	-589
▁bra	-590
ies	-591
▁thanked	-592
▁fi	-593
▁che	-594
▁laughed	-595
▁sky	-596
▁by	-597
▁jump	-598
▁gl	-599
ase	-600
▁te	-601
▁loud	-602
self	-603
Th	-604
iny	-605
▁way	-606
wn	-607
▁beauti	-608
▁come	-609
lew	-610
▁list	-611
▁beautiful	-612
▁wo	-613
▁hard	-614
▁lots	-615
▁ra	-616
▁still	-617
▁fam	-618
▁animals	-619
▁hurt	-620
▁under	-621
▁P	-622
▁Joh	-623
ect	-624
▁stay	-625
ning	-626
▁let	-627
ct	-628
▁both	-629
sh	-630
hes	-631
be	-632
▁safe	-633
ool	-634
ree	-635
▁col	-636
▁two	-637
▁bad	-638
It	-639
▁imp	-640
ople	-641
▁book	-642
▁rem	-643
ane	-644
▁As	-645
▁lived	-646
kay	-647
ock	-648
ucy	-649
▁walked	-650
ast	-651
▁su	-652
urpr	-653
▁brave	-654
▁Lucy	-655
▁should	-656
▁its	-657
ob	-658
ished	-659
▁surpr	-660
▁angry	-661
▁family	-662
ress	-663
igh	-664
▁people	-665
▁flew	-666
▁called	-667
▁After	-668
No	-669
▁red	-670
▁stor	-671
ip	-672
▁fin	-673
▁soon	-674
led	-675
Let	-676
▁kept	-677
▁fore	-678
fore	-679
▁dan	-680
▁share	-681
▁fly	-682
xt	-683
▁John	-684
ised	-685
▁Mommy	-686
dded	-687
▁pic	-688
▁door	-689
▁going	-690
▁G	-691
▁pretty	-692
▁keep	-693
▁Dad	-694
▁clean	-695
▁rock	-696
▁now	-697
▁dra	-698
▁advent	-699
ary	-700
ummy	-701
▁noise	-702
▁opened	-703
▁shiny	-704
age	-705
▁explore	-706
▁wind	-707
▁con	-708
▁doll	-709
▁cry	-710
▁ide	-711
ied	-712
▁before	-713
illy	-714
▁real	-715
▁sto	-716
so	-717
What	-718
▁ground	-719
▁also	-720
les	-721
▁turn	-722
TM	-723
▁ey	-724
▁far	-725
▁idea	-726
▁fr	-727
▁Sp	-728
▁nodded	-729
▁color	-730
▁war	-731
▁feeling	-732
▁picked	-733
▁un	-734
oy	-735
imb	-736
th	-737
▁walking	-738
▁next	-739
thing	-740
▁Bob	-741
ture	-742
▁climb	-743
▁has	-744
▁ma	-745
▁thr	-746
▁while	-747
eet	-748
▁bed	-749
▁adventure	-750
▁smile	-751
kes	-752
That	-753
aybe	-754
iced	-755
ger	-756
Thank	-757
ious	-758
▁being	-759
▁dif	-760
▁wr	-761
▁clos	-762
▁food	-763
joy	-764
ted	-765
▁give	-766
▁picture	-767
▁N	-768
▁think	-769
▁looking	-770
▁del	-771
ff	-772
ac	-773
▁wait	-774
▁truck	-775
ught	-776
▁eyes	-777
▁tow	-778
ting	-779
▁repl	-780
▁bro	-781
▁stopped	-782
▁listen	-783
▁after	-784
▁bre	-785
▁own	-786
▁vo	-787
▁walk	-788
ember	-789
▁great	-790
▁wonder	-791
▁Spot	-792
▁hands	-793
▁shout	-794
▁head	-795
▁enjoy	-796
▁import	-797
▁ever	-798
▁Sue	-799
▁flowers	-800
▁forest	-801
bbit	-802
▁noticed	-803
▁blue	-804
ized	-805
▁app	-806
▁quick	-807
▁dis	-808
▁near	-809
irst	-810
▁de	-811
▁important	-812
able	-813
▁remember	-814
▁fish	-815
llow	-816
▁sound	-817
oon	-818
▁slide	-819
maz	-820
▁us	-821
▁replied	-822
▁ac	-823
▁amaz	-824
▁work	-825
lease	-826
▁rain	-827
▁watch	-828
▁showed	-829
▁rabbit	-830
gan	-831
▁okay	-832
▁tal	-833
bye	-834
fere	-835
bbed	-836
▁ru	-837
▁differe	-838
▁ask	-839
▁Sarah	-840
▁mean	-841
▁right	-842
▁tou	-843
▁ye	-844
day	-845
▁watched	-846
▁bright	-847
▁follow	-848
▁everyone	-849
▁strong	-850
We	-851
▁squ	-852
▁stick	-853
▁been	-854
▁use	-855
▁mor	-856
▁voice	-857
▁tra	-858
ered	-859
▁quickly	-860
ath	-861
▁where	-862
▁our	-863
▁yell	-864
▁Jane	-865
▁different	-866
▁child	-867
ng	-868
▁boat	-869
▁curi	-870
▁sure	-871
▁became	-872
▁goodbye	-873
▁face	-874
▁place	-875
ange	-876
▁Th	-877
▁hop	-878
▁high	-879
aught	-880
▁am	-881
Look	-882
▁store	-883
▁closer	-884
▁warm	-885
▁cr	-886
▁does	-887
▁dress	-888
unny	-889
▁mag	-890
▁curious	-891
ila	-892
▁Joe	-893
▁cook	-894
▁forg	-895
▁bel	-896
▁tell	-897
▁fav	-898
ndma	-899
ass	-900
ount	-901
co	-902
▁three	-903
leep	-904
▁night	-905
▁open	-906
▁cake	-907
more	-908
▁anymore	-909
▁here	-910
▁block	-911
ull	-912
▁Lila	-913
▁first	-914
itc	-915
▁pull	-916
iss	-917
ached	-918
ired	-919
▁butter	-920
▁z	-921
imes	-922
orn	-923
▁sweet	-924
▁pain	-925
▁grabbed	-926
▁kid	-927
▁In	-928
Can	-929
isy	-930
▁only	-931
▁mon	-932
▁lea	-933
▁fell	-934
▁ba	-935
▁Everyone	-936
▁cont	-937
▁birds	-938
▁jumped	-939
▁glad	-940
▁bit	-941
▁sand	-942
itchen	-943
▁kitchen	-944
▁That	-945
▁helped	-946
▁sees	-947
▁per	-948
▁fire	-949
▁flo	-950
▁stop	-951
▁happened	-952
▁sing	-953
▁grass	-954
▁bunny	-955
▁shouted	-956
▁story	-957
▁Let	-958
▁tri	-959
nts	-960
▁dr	-961
air	-962
▁Do	-963
ppy	-964
▁reached	-965
▁beh	-966
▁realized	-967
▁yummy	-968
▁brother	-969
Mom	-970
▁Tommy	-971
▁lady	-972
▁mum	-973
ey	-974
▁having	-975
▁prin	-976
▁favor	-977
ins	-978
▁mess	-979
▁favorite	-980
▁rest	-981
▁cre	-982
▁draw	-983
▁through	-984
▁ate	-985
▁game	-986
▁hat	-987
▁less	-988
▁underst	-989
akes	-990
▁soft	-991
zy	-992
▁pare	-993
▁thing	-994
▁really	-995
ather	-996
▁ready	-997
▁began	-998
where	-999
▁pretend	-1000
▁world	-1001
▁Can	-1002
▁looks	-1003
▁himself	-1004
ken	-1005
fully	-1006
▁magic	-1007
▁pap	-1008
▁done	-1009
▁butterf	-1010
▁making	-1011
▁cut	-1012
▁coming	-1013
ater	-1014
▁duck	-1015
▁pond	-1016
▁kids	-1017
▁waved	-1018
▁why	-1019
▁tired	-1020
▁fro	-1021
▁prom	-1022
▁fix	-1023
ster	-1024
▁worry	-1025
▁mouse	-1026
olly	-1027
▁part	-1028
▁ste	-1029
▁cars	-1030
▁delic	-1031
▁flower	-1032
▁name	-1033
▁Fin	-1034
ign	-1035
▁fill	-1036
aisy	-1037
Wow	-1038
▁touch	-1039
eddy	-1040
▁funny	-1041
▁catch	-1042
bo	-1043
▁used	-1044
▁Sally	-1045
▁seen	-1046
▁hair	-1047
▁tast	-1048
ient	-1049
▁top	-1050
rel	-1051
▁parents	-1052
▁another	-1053
iver	-1054
▁hopped	-1055
▁cried	-1056
▁hold	-1057
oney	-1058
mer	-1059
▁cool	-1060
▁doing	-1061
▁blocks	-1062
".	-1063
▁surprise	-1064
▁light	-1065
hy	-1066
▁green	-1067
▁thank	-1068
▁lesson	-1069
ation	-1070
▁read	-1071
▁din	-1072
▁floor	-1073
▁wood	-1074
▁gi	-1075
▁dri	-1076
Don	-1077
ards	-1078
▁full	-1079
▁trees	-1080
▁running	-1081
▁worked	-1082
▁window	-1083
▁years	-1084
▁cra	-1085
▁-	-1086
▁dro	-1087
▁dark	-1088
▁behind	-1089
▁spot	-1090
▁smell	-1091
▁likes	-1092
▁wished	-1093
▁paper	-1094
▁yellow	-1095
ued	-1096
andy	-1097
ren	-1098
▁bow	-1099
▁swim	-1100
▁happily	-1101
▁sat	-1102
▁bag	-1103
ul	-1104
▁sho	-1105
▁sleep	-1106
aring	-1107
▁Daisy	-1108
▁surprised	-1109
ely	-1110
▁frog	-1111
▁Em	-1112
us	-1113
▁butterfly	-1114
ike	-1115
▁swing	-1116
▁set	-1117
▁carefully	-1118
TMs	-1119
▁Benny	-1120
▁slow	-1121
▁remembered	-1122
▁lost	-1123
▁Jim	-1124
▁cold	-1125
▁held	-1126
uff	-1127
ello	-1128
▁hole	-1129
▁ice	-1130
Hello	-1131
▁laugh	-1132
rew	-1133
▁At	-1134
▁needed	-1135
▁buy	-1136
▁perf	-1137
▁left	-1138
ons	-1139
▁move	-1140
cess	-1141
reed	-1142
▁anything	-1143
▁enjoyed	-1144
▁tall	-1145
▁Billy	-1146
▁dream	-1147
▁wrong	-1148
▁arri	-1149
▁hear	-1150
▁Now	-1151
▁air	-1152
▁fair	-1153
▁followed	-1154
▁Finally	-1155
▁There	-1156
ross	-1157
▁el	-1158
▁books	-1159
▁To	-1160
▁children	-1161
▁hun	-1162
▁bus	-1163
▁delicious	-1164
▁table	-1165
▁finished	-1166
▁Gra	-1167
▁contin	-1168
▁friendly	-1169
▁dir	-1170
▁hot	-1171
▁snow	-1172
▁Molly	-1173
▁herself	-1174
ds	-1175
lf	-1176
▁hill	-1177
ens	-1178
▁understand	-1179
▁please	-1180
▁close	-1181
ined	-1182
▁Amy	-1183
sp	-1184
▁hid	-1185
▁arrived	-1186
▁cast	-1187
▁else	-1188
▁arm	-1189
▁wonderful	-1190
▁baby	-1191
▁might	-1192
▁gent	-1193
▁tight	-1194
▁forgot	-1195
ield	-1196
▁bug	-1197
▁colors	-1198
▁rel	-1199
▁build	-1200
▁broken	-1201
▁able	-1202
▁gone	-1203
av	-1204
ner	-1205
▁Jen	-1206
▁yes	-1207
atter	-1208
▁wall	-1209
▁song	-1210
ich	-1211
▁filled	-1212
▁squir	-1213
▁agreed	-1214
▁someone	-1215
▁gu	-1216
▁continued	-1217
room	-1218
▁creat	-1219
asure	-1220
▁count	-1221
▁wants	-1222
▁squirrel	-1223
▁pink	-1224
▁leaves	-1225
ask	-1226
▁This	-1227
▁enough	-1228
▁lion	-1229
ama	-1230
ee	-1231
▁morning	-1232
▁moment	-1233
▁vis	-1234
▁finally	-1235
▁getting	-1236
▁stayed	-1237
▁cookies	-1238
▁break	-1239
app	-1240
shed	-1241
ance	-1242
▁poin	-1243
▁beach	-1244
▁Maybe	-1245
▁few	-1246
▁fight	-1247
▁scary	-1248
▁sometimes	-1249
ced	-1250
ries	-1251
row	-1252
ash	-1253
▁What	-1254
red	-1255
▁dinner	-1256
▁turned	-1257
▁fall	-1258
▁hungry	-1259
gon	-1260
▁mother	-1261
▁grandma	-1262
▁wet	-1263
▁ju	-1264
▁amazing	-1265
▁trying	-1266
▁cream	-1267
apped	-1268
▁daddy	-1269
▁perfect	-1270
▁makes	-1271
▁pi	-1272
▁others	-1273
▁castle	-1274
▁climbed	-1275
oup	-1276
key	-1277
▁pictures	-1278
icy	-1279
▁comp	-1280
amp	-1281
▁met	-1282
▁talk	-1283
▁mus	-1284
ere	-1285
oom	-1286
▁white	-1287
▁listened	-1288
▁smiles	-1289
man	-1290
▁fur	-1291
oring	-1292
▁clot	-1293
▁balloon	-1294
▁clothes	-1295
▁alone	-1296
▁Jill	-1297
▁pol	-1298
lc	-1299
▁tail	-1300
rot	-1301
▁joy	-1302
ated	-1303
▁puppy	-1304
▁mar	-1305
▁spl	-1306
ence	-1307
▁wasn	-1308
▁brought	-1309
▁deep	-1310
▁everything	-1311
▁sear	-1312
▁strange	-1313
Oh	-1314
▁pet	-1315
ister	-1316
ctor	-1317
▁spark	-1318
der	-1319
▁sit	-1320
▁grow	-1321
▁woods	-1322
▁pulled	-1323
ling	-1324
▁sail	-1325
ott	-1326
▁won	-1327
▁ride	-1328
▁plan	-1329
eter	-1330
▁asks	-1331
▁fox	-1332
▁pie	-1333
▁treat	-1334
▁danger	-1335
uffy	-1336
▁visit	-1337
▁roll	-1338
os	-1339
▁leave	-1340
med	-1341
▁pat	-1342
ucky	-1343
This	-1344
▁music	-1345
▁amazed	-1346
▁waited	-1347
▁Soon	-1348
▁teddy	-1349
▁hide	-1350
me	-1351
But	-1352
ang	-1353
ever	-1354
▁towards	-1355
ower	-1356
▁field	-1357
▁pre	-1358
▁land	-1359
▁flying	-1360
zz	-1361
▁All	-1362
▁pen	-1363
▁silly	-1364
▁shared	-1365
▁owner	-1366
ained	-1367
▁runs	-1368
▁cloud	-1369
ape	-1370
ugg	-1371
▁living	-1372
▁Daddy	-1373
▁qui	-1374
▁job	-1375
ames	-1376
▁promised	-1377
▁belie	-1378
igg	-1379
▁moral	-1380
▁side	-1381
orm	-1382
ol	-1383
gs	-1384
▁lake	-1385
▁Mama	-1386
▁thinks	-1387
cket	-1388
Maybe	-1389
ope	-1390
▁paint	-1391
▁sec	-1392
thy	-1393
▁sister	-1394
ually	-1395
▁party	-1396
▁quiet	-1397
▁Mary	-1398
ises	-1399
▁must	-1400
Okay	-1401
cle	-1402
▁race	-1403
avy	-1404
▁money	-1405
▁wear	-1406
sw	-1407
▁worried	-1408
ased	-1409
▁answ	-1410
unch	-1411
▁slowly	-1412
▁pot	-1413
▁colorful	-1414
eces	-1415
▁grate	-1416
▁faster	-1417
▁ow	-1418
▁bran	-1419
▁pieces	-1420
▁dance	-1421
▁bott	-1422
▁welc	-1423
▁broke	-1424
▁cup	-1425
▁such	-1426
▁grateful	-1427
ix	-1428
▁gif	-1429
▁bigger	-1430
▁train	-1431
ze	-1432
ph	-1433
▁snack	-1434
fort	-1435
▁cho	-1436
▁Fl	-1437
▁Mr	-1438
▁reach	-1439
▁blank	-1440
▁pro	-1441
▁monster	-1442
▁plant	-1443
▁join	-1444
▁river	-1445
less	-1446
▁black	-1447
▁candy	-1448
ire	-1449
▁win	-1450
▁blanket	-1451
▁scream	-1452
uit	-1453
▁ele	-1454
▁magical	-1455
▁treasure	-1456
ear	-1457
▁princess	-1458
▁ve	-1459
▁stu	-1460
▁smart	-1461
▁bike	-1462
▁dangerous	-1463
▁Just	-1464
▁sign	-1465
▁dragon	-1466
▁across	-1467
▁monkey	-1468
▁most	-1469
▁everywhere	-1470
▁helping	-1471
▁bar	-1472
▁nap	-1473
outh	-1474
▁farmer	-1475
▁em	-1476
▁mouth	-1477
set	-1478
Why	-1479
▁disapp	-1480
▁Jimmy	-1481
▁pa	-1482
▁words	-1483
ipped	-1484
▁je	-1485
Sure	-1486
▁stre	-1487
ored	-1488
eared	-1489
ming	-1490
▁stepped	-1491
Hi	-1492
▁threw	-1493
▁heavy	-1494
▁tower	-1495
▁dolls	-1496
▁pass	-1497
▁bite	-1498
de	-1499
▁bowl	-1500
▁dirty	-1501
▁same	-1502
▁twins	-1503
▁crying	-1504
▁bee	-1505
▁spr	-1506
ident	-1507
TMt	-1508
▁doctor	-1509
▁acc	-1510
▁Grandma	-1511
▁believe	-1512
▁wouldn	-1513
Mommy	-1514
▁bath	-1515
▁heal	-1516
▁hig	-1517
chool	-1518
bble	-1519
▁closed	-1520
▁carrot	-1521
▁Mum	-1522
▁heart	-1523
▁stuck	-1524
cked	-1525
▁cour	-1526
▁buck	-1527
The	-1528
▁fruit	-1529
▁min	-1530
▁att	-1531
▁teac	-1532
▁school	-1533
▁brown	-1534
▁hoped	-1535
asket	-1536
iting	-1537
▁basket	-1538
▁suddenly	-1539
▁Emma	-1540
▁feels	-1541
▁mix	-1542
▁chair	-1543
▁eating	-1544
▁town	-1545
▁course	-1546
▁clapped	-1547
▁cray	-1548
▁coll	-1549
▁gentle	-1550
▁fairy	-1551
pping	-1552
▁pack	-1553
▁butt	-1554
ventually	-1555
▁stand	-1556
ier	-1557
▁drove	-1558
ors	-1559
▁pushed	-1560
br	-1561
issed	-1562
▁welcome	-1563
ts	-1564
▁swings	-1565
▁higher	-1566
▁without	-1567
▁Inside	-1568
▁neigh	-1569
▁today	-1570
▁pocket	-1571
orrow	-1572
▁hit	-1573
▁teacher	-1574
▁neighb	-1575
ord	-1576
▁pers	-1577
▁smo	-1578
▁piece	-1579
ourn	-1580
▁games	-1581
▁cheered	-1582
ract	-1583
▁wings	-1584
▁forget	-1585
▁ben	-1586
▁explained	-1587
▁longer	-1588
▁journ	-1589
▁yard	-1590
▁free	-1591
ible	-1592
▁accident	-1593
▁corn	-1594
ead	-1595
▁dry	-1596
▁along	-1597
ho	-1598
umb	-1599
cy	-1600
ment	-1601
▁Their	-1602
▁noises	-1603
itting	-1604
▁sang	-1605
▁inst	-1606
▁neck	-1607
▁happen	-1608
▁late	-1609
▁throw	-1610
▁hugs	-1611
▁young	-1612
▁turns	-1613
phant	-1614
▁stories	-1615
vel	-1616
▁shoes	-1617
▁lon	-1618
▁miss	-1619
▁adventures	-1620
▁singing	-1621
▁trou	-1622
▁well	-1623
▁sea	-1624
▁upset	-1625
▁lunch	-1626
▁apple	-1627
▁lonely	-1628
▁key	-1629
bby	-1630
ches	-1631
▁elephant	-1632
oun	-1633
▁street	-1634
▁secret	-1635
▁plac	-1636
▁belong	-1637
▁dist	-1638
▁mine	-1639
▁tom	-1640
▁wish	-1641
▁fence	-1642
ountain	-1643
▁mat	-1644
ek	-1645
▁shap	-1646
▁shook	-1647
▁exploring	-1648
▁moved	-1649
▁year	-1650
▁purp	-1651
▁nearby	-1652
▁soup	-1653
aughty	-1654
▁naughty	-1655
▁star	-1656
▁Sammy	-1657
▁shop	-1658
▁wise	-1659
▁bring	-1660
▁stars	-1661
▁owl	-1662
▁jar	-1663
fused	-1664
bow	-1665
▁Fluffy	-1666
ocked	-1667
▁inv	-1668
▁Tw	-1669
▁exp	-1670
▁caught	-1671
yard	-1672
▁whe	-1673
ward	-1674
Do	-1675
▁seemed	-1676
▁backyard	-1677
▁ph	-1678
▁es	-1679
ail	-1680
▁relie	-1681
▁dropped	-1682
▁rocks	-1683
aughter	-1684
llo	-1685
▁drink	-1686
▁bucket	-1687
adow	-1688
▁purple	-1689
▁swam	-1690
▁des	-1691
ces	-1692
▁resp	-1693
▁farm	-1694
▁taking	-1695
▁Thank	-1696
▁orange	-1697
▁though	-1698
ions	-1699
▁mail	-1700
sy	-1701
▁shapes	-1702
▁past	-1703
▁cow	-1704
col	-1705
▁woke	-1706
▁bench	-1707
ung	-1708
▁af	-1709
▁sounds	-1710
ity	-1711
▁fit	-1712
▁wondered	-1713
▁busy	-1714
▁tiny	-1715
▁Later	-1716
▁ob	-1717
▁sitting	-1718
▁rainbow	-1719
▁nose	-1720
▁nest	-1721
ese	-1722
▁daughter	-1723
▁mark	-1724
▁takes	-1725
▁mad	-1726
fish	-1727
▁kite	-1728
to	-1729
▁cou	-1730
read	-1731
Lily	-1732
▁holding	-1733
▁juice	-1734
▁comes	-1735
▁arms	-1736
▁nothing	-1737
thday	-1738
▁pig	-1739
og	-1740
▁coat	-1741
ining	-1742
▁cir	-1743
▁With	-1744
▁branch	-1745
raid	-1746
▁relieved	-1747
pper	-1748
▁Ell	-1749
▁afraid	-1750
ose	-1751
cing	-1752
idge	-1753
▁driver	-1754
▁mil	-1755
vered	-1756
▁spoon	-1757
▁Al	-1758
▁forever	-1759
▁cute	-1760
▁carry	-1761
▁gift	-1762
▁sick	-1763
▁boun	-1764
ale	-1765
▁lift	-1766
▁peace	-1767
sting	-1768
ours	-1769
Of	-1770
▁promise	-1771
▁huge	-1772
▁act	-1773
▁touched	-1774
▁Jenny	-1775
unt	-1776
▁patient	-1777
▁king	-1778
▁round	-1779
sc	-1780
▁hello	-1781
cer	-1782
▁Come	-1783
▁birthday	-1784
▁fing	-1785
▁letter	-1786
▁grab	-1787
▁Tweet	-1788
▁cheese	-1789
let	-1790
▁sunny	-1791
▁exciting	-1792
▁intere	-1793
▁bush	-1794
▁onto	-1795
eth	-1796
▁laughing	-1797
▁days	-1798
board	-1799
▁journey	-1800
▁band	-1801
▁gigg	-1802
▁creature	-1803
▁disco	-1804
ittens	-1805
▁Wh	-1806
▁bread	-1807
▁ret	-1808
arp	-1809
Hey	-1810
shine	-1811
ped	-1812
▁imag	-1813
▁life	-1814
gged	-1815
▁kick	-1816
▁power	-1817
▁hope	-1818
▁shell	-1819
▁craw	-1820
▁cozy	-1821
▁swimming	-1822
▁inc	-1823
▁bottle	-1824
▁sharp	-1825
▁suc	-1826
▁mist	-1827
▁Emily	-1828
▁wra	-1829
ness	-1830
▁comfort	-1831
▁instead	-1832
▁whist	-1833
gg	-1834
▁milk	-1835
▁watching	-1836
▁return	-1837
▁ear	-1838
▁spin	-1839
▁accidentally	-1840
alm	-1841
▁eas	-1842
▁sunshine	-1843
ten	-1844
▁cave	-1845
▁Ch	-1846
pa	-1847
▁spo	-1848
▁lucky	-1849
▁talked	-1850
▁puts	-1851
▁pudd	-1852
▁pointed	-1853
▁honey	-1854
▁collect	-1855
▁gives	-1856
▁gather	-1857
itch	-1858
▁ent	-1859
▁road	-1860
▁bought	-1861
▁smiling	-1862
▁anyone	-1863
▁searched	-1864
▁ce	-1865
▁hor	-1866
▁later	-1867
▁fan	-1868
ball	-1869
▁sandw	-1870
round	-1871
▁apples	-1872
itten	-1873
els	-1874
blem	-1875
irt	-1876
▁problem	-1877
▁meet	-1878
ize	-1879
▁mach	-1880
▁wom	-1881
▁loves	-1882
▁woman	-1883
œI	-1884
▁interesting	-1885
Good	-1886
▁plane	-1887
▁pres	-1888
▁kiss	-1889
▁healthy	-1890
eb	-1891
▁tasty	-1892
▁pile	-1893
▁vill	-1894
▁ducks	-1895
ove	-1896
▁wide	-1897
amed	-1898
ont	-1899
ub	-1900
▁adm	-1901
aur	-1902
▁spid	-1903
▁clever	-1904
▁eag	-1905
▁prot	-1906
▁matter	-1907
▁trouble	-1908
▁crayons	-1909
▁zoom	-1910
erly	-1911
ndpa	-1912
▁storm	-1913
owed	-1914
▁clouds	-1915
▁person	-1916
▁path	-1917
▁pill	-1918
cks	-1919
▁feather	-1920
▁rope	-1921
▁pop	-1922
▁protect	-1923
▁shining	-1924
▁smelled	-1925
▁front	-1926
▁hon	-1927
▁button	-1928
▁How	-1929
▁pract	-1930
▁spotted	-1931
▁minut	-1932
▁screamed	-1933
▁present	-1934
▁zoo	-1935
▁Jake	-1936
Come	-1937
▁ap	-1938
▁saf	-1939
▁respect	-1940
▁val	-1941
▁mud	-1942
▁Somet	-1943
▁danced	-1944
▁organ	-1945
▁cheer	-1946
▁par	-1947
▁quest	-1948
▁appeared	-1949
ond	-1950
▁which	-1951
▁puzz	-1952
▁seat	-1953
▁teach	-1954
▁myster	-1955
▁snowman	-1956
isa	-1957
▁snake	-1958
▁St	-1959
▁thin	-1960
ert	-1961
▁asleep	-1962
▁wild	-1963
▁sur	-1964
▁lovely	-1965
epend	-1966
▁answer	-1967
▁Mittens	-1968
▁Together	-1969
▁wearing	-1970
▁gently	-1971
▁neighbor	-1972
oose	-1973
▁places	-1974
▁bark	-1975
▁giant	-1976
▁horse	-1977
▁goes	-1978
▁whole	-1979
▁search	-1980
▁splas	-1981
ular	-1982
up	-1983
▁impress	-1984
▁corner	-1985
▁dirt	-1986
een	-1987
▁shr	-1988
▁med	-1989
▁tries	-1990
▁Lisa	-1991
▁trip	-1992
▁confused	-1993
▁live	-1994
▁di	-1995
▁mind	-1996
ato	-1997
▁rolled	-1998
▁tasted	-1999
nic	-2000
▁slid	-2001
▁card	-2002
cean	-2003
▁ash	-2004
▁ocean	-2005
▁supp	-2006
▁Le	-2007
▁picnic	-2008
▁forgive	-2009
▁Go	-2010
▁rude	-2011
▁machine	-2012
▁ca	-2013
▁spent	-2014
▁ser	-2015
▁teeth	-2016
▁drive	-2017
itty	-2018
▁phone	-2019
ssed	-2020
▁oven	-2021
▁pan	-2022
▁last	-2023
▁pour	-2024
la	-2025
▁calm	-2026
▁pretended	-2027
▁delight	-2028
▁cookie	-2029
▁spider	-2030
ex	-2031
▁feet	-2032
▁furry	-2033
izz	-2034
unk	-2035
▁lay	-2036
▁faces	-2037
▁worm	-2038
umber	-2039
▁ring	-2040
▁rec	-2041
▁helpful	-2042
▁Be	-2043
▁lad	-2044
▁Peter	-2045
▁eventually	-2046
▁wave	-2047
▁wip	-2048
▁chick	-2049
▁mountain	-2050
▁ban	-2051
▁sal	-2052
▁emb	-2053
ones	-2054
▁talking	-2055
▁rob	-2056
▁fold	-2057
▁shy	-2058
Tom	-2059
▁cart	-2060
▁tomorrow	-2061
▁sel	-2062
▁chocol	-2063
▁tid	-2064
▁spread	-2065
▁bubble	-2066
▁village	-2067
arge	-2068
ife	-2069
▁remind	-2070
▁ign	-2071
▁tun	-2072
▁foot	-2073
▁coin	-2074
▁write	-2075
▁couch	-2076
▁building	-2077
▁push	-2078
▁ladder	-2079
▁fighting	-2080
▁smooth	-2081
▁treats	-2082
▁blew	-2083
▁tool	-2084
▁chased	-2085
▁Sometimes	-2086
▁Little	-2087
▁wore	-2088
lex	-2089
ighed	-2090
▁stret	-2091
arra	-2092
▁bugs	-2093
per	-2094
▁hiding	-2095
▁embarra	-2096
▁knee	-2097
▁'	-2098
▁pool	-2099
▁cross	-2100
oph	-2101
▁waiting	-2102
My	-2103
▁step	-2104
▁puddle	-2105
▁robot	-2106
▁Teddy	-2107
ator	-2108
▁neckl	-2109
▁shelf	-2110
▁bell	-2111
▁finish	-2112
mo	-2113
▁coo	-2114
not	-2115
als	-2116
▁stir	-2117
▁ant	-2118
▁whenever	-2119
▁songs	-2120
▁selfish	-2121
▁maybe	-2122
▁cannot	-2123
▁Mummy	-2124
▁stra	-2125
▁string	-2126
▁Everywhere	-2127
▁Sus	-2128
▁sol	-2129
▁chocolate	-2130
ult	-2131
▁taste	-2132
▁spe	-2133
▁rep	-2134
▁large	-2135
▁hum	-2136
▁ple	-2137
▁net	-2138
▁paw	-2139
lebr	-2140
▁sack	-2141
box	-2142
▁fixed	-2143
▁leaf	-2144
▁tidy	-2145
▁wash	-2146
▁scar	-2147
umpy	-2148
▁banan	-2149
▁barked	-2150
▁spray	-2151
▁Bu	-2152
▁celebr	-2153
old	-2154
▁stone	-2155
▁gen	-2156
Please	-2157
▁cloth	-2158
▁crab	-2159
▁peaceful	-2160
▁colour	-2161
▁Johnn	-2162
ungle	-2163
▁Please	-2164
oin	-2165
▁hel	-2166
ird	-2167
▁jungle	-2168
ush	-2169
▁missed	-2170
iger	-2171
▁deter	-2172
arm	-2173
St	-2174
▁landed	-2175
▁determ	-2176
▁forward	-2177
▁embarrassed	-2178
▁Some	-2179
▁Johnny	-2180
▁jumping	-2181
▁bat	-2182
▁decor	-2183
▁honest	-2184
elly	-2185
▁necklace	-2186
airs	-2187
▁Alice	-2188
dge	-2189
▁trust	-2190
▁hears	-2191
▁moon	-2192
orry	-2193
▁shirt	-2194
▁sticks	-2195
▁creative	-2196
▁sharing	-2197
aking	-2198
▁tea	-2199
▁success	-2200
▁knocked	-2201
▁carrots	-2202
▁disappoin	-2203
most	-2204
▁meadow	-2205
▁Even	-2206
▁Don	-2207
▁stood	-2208
ying	-2209
getable	-2210
▁gener	-2211
▁whis	-2212
▁While	-2213
▁bal	-2214
▁tightly	-2215
▁meant	-2216
▁vegetable	-2217
▁ashamed	-2218
▁breath	-2219
▁legs	-2220
ned	-2221
▁plate	-2222
▁almost	-2223
▁sour	-2224
▁emp	-2225
▁gray	-2226
dle	-2227
▁grew	-2228
▁pillow	-2229
▁tells	-2230
▁empty	-2231
ground	-2232
ony	-2233
▁Bo	-2234
▁whistle	-2235
▁gas	-2236
▁splash	-2237
ian	-2238
▁understood	-2239
▁ber	-2240
▁sheep	-2241
▁carried	-2242
den	-2243
▁Why	-2244
▁yelled	-2245
▁lem	-2246
arl	-2247
ustr	-2248
vous	-2249
▁hours	-2250
▁disappointed	-2251
ital	-2252
▁nut	-2253
▁snacks	-2254
▁save	-2255
▁police	-2256
▁nods	-2257
hin	-2258
▁jew	-2259
▁these	-2260
ork	-2261
▁hosp	-2262
▁sparkly	-2263
▁gold	-2264
▁hospital	-2265
ets	-2266
▁kitten	-2267
Where	-2268
▁ship	-2269
erp	-2270
ina	-2271
▁pay	-2272
urse	-2273
▁bored	-2274
▁line	-2275
▁generous	-2276
▁frustr	-2277
▁taught	-2278
▁Leo	-2279
▁hidden	-2280
▁test	-2281
▁rad	-2282
▁standing	-2283
▁chew	-2284
▁scarf	-2285
▁minutes	-2286
▁returned	-2287
iff	-2288
▁knowing	-2289
▁hur	-2290
▁blow	-2291
▁group	-2292
▁easy	-2293
▁bedroom	-2294
▁plants	-2295
▁pizz	-2296
▁polite	-2297
▁glass	-2298
▁mysterious	-2299
▁waves	-2300
▁shore	-2301
▁sighed	-2302
▁seed	-2303
▁wolf	-2304
▁Mark	-2305
▁pri	-2306
▁seek	-2307
▁determined	-2308
kin	-2309
▁thankful	-2310
▁puzzle	-2311
Stop	-2312
▁powerful	-2313
▁class	-2314
▁ner	-2315
▁Br	-2316
▁prince	-2317
▁pir	-2318
▁fig	-2319
▁sleepy	-2320
fl	-2321
▁passed	-2322
▁sandwich	-2323
▁drew	-2324
▁Susie	-2325
▁nervous	-2326
▁spicy	-2327
▁Bl	-2328
▁finger	-2329
▁jelly	-2330
▁frustrated	-2331
▁messy	-2332
▁pizza	-2333
▁fancy	-2334
▁spoil	-2335
▁match	-2336
▁gun	-2337
work	-2338
osaur	-2339
▁gate	-2340
▁bridge	-2341
▁lock	-2342
▁fear	-2343
▁tick	-2344
aul	-2345
▁closet	-2346
▁mot	-2347
▁reg	-2348
▁kissed	-2349
▁sold	-2350
▁feed	-2351
af	-2352
▁wis	-2353
▁gathered	-2354
▁av	-2355
▁poor	-2356
▁circ	-2357
▁excite	-2358
ote	-2359
▁hang	-2360
ella	-2361
▁esc	-2362
erpill	-2363
▁van	-2364
▁caterpill	-2365
▁flag	-2366
▁pin	-2367
▁grumpy	-2368
oop	-2369
▁dinosaur	-2370
ano	-2371
iddle	-2372
▁yourself	-2373
uce	-2374
issors	-2375
▁answered	-2376
▁cries	-2377
Are	-2378
▁often	-2379
itter	-2380
▁twirl	-2381
▁chest	-2382
sist	-2383
selves	-2384
gly	-2385
▁hopping	-2386
pack	-2387
▁scissors	-2388
▁tears	-2389
mb	-2390
Sorry	-2391
▁ugly	-2392
▁mummy	-2393
Ben	-2394
▁Today	-2395
▁Dan	-2396
▁burn	-2397
▁cand	-2398
ensive	-2399
▁deer	-2400
▁drop	-2401
illed	-2402
▁fil	-2403
izzy	-2404
▁excitement	-2405
era	-2406
▁lit	-2407
▁scr	-2408
▁expensive	-2409
▁working	-2410
▁middle	-2411
▁saved	-2412
▁ok	-2413
▁caterpillar	-2414
▁taken	-2415
▁true	-2416
▁wagged	-2417
▁ones	-2418
▁pleased	-2419
▁crown	-2420
▁spend	-2421
▁boring	-2422
ugar	-2423
▁leg	-2424
que	-2425
▁picks	-2426
oof	-2427
▁vase	-2428
▁tent	-2429
▁asking	-2430
body	-2431
ual	-2432
ates	-2433
▁Bobby	-2434
▁tie	-2435
ecially	-2436
▁brush	-2437
▁vegetables	-2438
▁giggled	-2439
▁boss	-2440
ete	-2441
▁mistake	-2442
Who	-2443
ser	-2444
▁cage	-2445
▁mir	-2446
light	-2447
▁sugar	-2448
▁gets	-2449
▁cap	-2450
▁rocket	-2451
▁stuff	-2452
▁comfortable	-2453
▁packed	-2454
▁eld	-2455
pecially	-2456
▁especially	-2457
▁dancing	-2458
▁clown	-2459
▁wander	-2460
▁number	-2461
▁sight	-2462
▁medic	-2463
▁press	-2464
▁knight	-2465
ggs	-2466
ots	-2467
▁fruits	-2468
iness	-2469
▁Eventually	-2470
▁drum	-2471
▁eggs	-2472
▁lying	-2473
▁fake	-2474
▁pus	-2475
ror	-2476
▁dest	-2477
aged	-2478
▁glue	-2479
▁walks	-2480
▁distance	-2481
▁medicine	-2482
▁Mandy	-2483
▁splashed	-2484
▁bake	-2485
▁flut	-2486
▁sweetie	-2487
▁No	-2488
▁bone	-2489
▁moving	-2490
▁drawing	-2491
▁Blue	-2492
▁disappeared	-2493
▁smelly	-2494
▁change	-2495
▁clap	-2496
▁week	-2497
▁lead	-2498
▁become	-2499
▁pray	-2500
▁lemon	-2501
▁feathers	-2502
ha	-2503
▁mov	-2504
▁lose	-2505
▁moms	-2506
▁licked	-2507
▁calling	-2508
▁If	-2509
▁twist	-2510
▁dogs	-2511
ory	-2512
▁bathroom	-2513
▁playground	-2514
▁Pete	-2515
▁fis	-2516
yal	-2517
▁lazy	-2518
▁weak	-2519
▁incred	-2520
▁Fred	-2521
▁roar	-2522
▁elderly	-2523
▁body	-2524
?".	-2525
▁gar	-2526
Now	-2527
▁cri	-2528
▁exam	-2529
▁horn	-2530
▁crack	-2531
▁questions	-2532
▁wrote	-2533
▁add	-2534
▁yog	-2535
▁yours	-2536
▁mirror	-2537
▁mic	-2538
▁noisy	-2539
uggest	-2540
▁father	-2541
▁suggest	-2542
▁nod	-2543
▁skipped	-2544
ating	-2545
elp	-2546
eez	-2547
▁fluffy	-2548
▁ed	-2549
▁eager	-2550
▁wheel	-2551
▁ext	-2552
▁dish	-2553
▁loyal	-2554
▁clear	-2555
▁famous	-2556
▁stones	-2557
▁End	-2558
▁lamp	-2559
▁ruined	-2560
▁Ellie	-2561
▁dig	-2562
▁rare	-2563
land	-2564
▁ord	-2565
ination	-2566
▁content	-2567
▁rich	-2568
▁tape	-2569
▁sell	-2570
▁figure	-2571
▁drank	-2572
▁map	-2573
▁march	-2574
▁incredible	-2575
▁queen	-2576
▁rid	-2577
▁glow	-2578
▁shows	-2579
▁check	-2580
▁juicy	-2581
▁soap	-2582
ti	-2583
▁covered	-2584
▁ind	-2585
▁sailed	-2586
▁relax	-2587
▁balls	-2588
▁aw	-2589
illi	-2590
▁team	-2591
▁shoot	-2592
▁measure	-2593
ately	-2594
hip	-2595
▁discovered	-2596
▁decide	-2597
▁realised	-2598
umbled	-2599
▁swan	-2600
▁needs	-2601
▁borrow	-2602
▁coins	-2603
▁Ella	-2604
▁straw	-2605
fic	-2606
▁adventur	-2607
▁branches	-2608
cept	-2609
▁cleaned	-2610
▁Bella	-2611
▁ham	-2612
▁extra	-2613
Help	-2614
▁towel	-2615
asing	-2616
▁boys	-2617
▁Mar	-2618
▁board	-2619
▁motor	-2620
imp	-2621
▁tiger	-2622
Well	-2623
▁barn	-2624
▁chicken	-2625
▁mod	-2626
Be	-2627
▁adventurous	-2628
▁diffic	-2629
▁tag	-2630
▁offered	-2631
▁joke	-2632
▁bubbles	-2633
▁Brown	-2634
▁balance	-2635
▁fine	-2636
keep	-2637
▁lifted	-2638
ique	-2639
▁colourful	-2640
▁thick	-2641
▁frown	-2642
▁eye	-2643
▁difficult	-2644
▁turt	-2645
▁track	-2646
▁dolp	-2647
▁organized	-2648
▁toug	-2649
▁bottom	-2650
▁happening	-2651
▁cover	-2652
rag	-2653
alous	-2654
▁unique	-2655
port	-2656
▁hose	-2657
▁knife	-2658
▁jealous	-2659
▁weird	-2660
▁island	-2661
▁fright	-2662
▁Bobo	-2663
▁Mrs	-2664
▁garage	-2665
▁managed	-2666
cil	-2667
▁hurts	-2668
imed	-2669
▁once	-2670
▁pencil	-2671
ject	-2672
▁word	-2673
▁learning	-2674
▁crawled	-2675
▁arg	-2676
▁cost	-2677
▁circle	-2678
▁saying	-2679
▁berries	-2680
▁kindness	-2681
▁Dave	-2682
ured	-2683
▁Mike	-2684
▁balloons	-2685
▁tough	-2686
Me	-2687
▁Fr	-2688
olog	-2689
▁mighty	-2690
▁wand	-2691
▁chase	-2692
ready	-2693
ddy	-2694
▁bald	-2695
▁pointing	-2696
▁ter	-2697
▁favour	-2698
lies	-2699
iv	-2700
▁shake	-2701
▁louder	-2702
keeper	-2703
ipper	-2704
▁jewel	-2705
▁batter	-2706
ages	-2707
▁added	-2708
▁sil	-2709
▁guit	-2710
▁hunt	-2711
▁harder	-2712
▁spun	-2713
▁guess	-2714
▁Tweety	-2715
▁already	-2716
▁apolog	-2717
▁unus	-2718
▁edge	-2719
head	-2720
▁four	-2721
▁ang	-2722
▁whale	-2723
▁norm	-2724
▁fool	-2725
▁libr	-2726
alk	-2727
▁favourite	-2728
▁unusual	-2729
▁dizzy	-2730
rage	-2731
▁enjoying	-2732
ipp	-2733
▁valu	-2734
aw	-2735
▁pump	-2736
▁Grandpa	-2737
▁hats	-2738
▁smoke	-2739
▁belonged	-2740
▁cheerful	-2741
▁grace	-2742
▁wrapped	-2743
▁strawber	-2744
▁impressed	-2745
uggled	-2746
▁record	-2747
▁sword	-2748
▁trucks	-2749
▁grown	-2750
▁giving	-2751
▁market	-2752
▁ref	-2753
▁trunk	-2754
▁normal	-2755
▁laughs	-2756
anged	-2757
ola	-2758
▁grand	-2759
▁ears	-2760
▁guitar	-2761
▁loudly	-2762
▁harm	-2763
▁hero	-2764
illiant	-2765
▁banana	-2766
▁boxes	-2767
▁turtle	-2768
▁proudly	-2769
▁Soph	-2770
▁brilliant	-2771
▁scare	-2772
ature	-2773
▁circles	-2774
ilt	-2775
▁terri	-2776
▁whisp	-2777
▁choose	-2778
▁brothers	-2779
Here	-2780
ym	-2781
▁bossy	-2782
ery	-2783
▁dreamed	-2784
▁against	-2785
Tim	-2786
▁escape	-2787
▁invited	-2788
▁goat	-2789
▁skin	-2790
ipe	-2791
cient	-2792
▁helps	-2793
gy	-2794
▁compet	-2795
▁cab	-2796
▁pil	-2797
▁frightened	-2798
▁melt	-2799
▁painting	-2800
▁means	-2801
▁birdie	-2802
▁accept	-2803
▁pee	-2804
▁flash	-2805
▁jack	-2806
fast	-2807
▁depend	-2808
▁safely	-2809
▁slipped	-2810
▁buttons	-2811
▁stubb	-2812
▁wrap	-2813
▁design	-2814
▁valuable	-2815
▁crayon	-2816
▁stream	-2817
▁ancient	-2818
▁walls	-2819
▁cabin	-2820
▁breakfast	-2821
▁wake	-2822
▁happiness	-2823
▁study	-2824
edient	-2825
ouses	-2826
▁log	-2827
erry	-2828
▁successful	-2829
emo	-2830
▁clay	-2831
▁Lola	-2832
orge	-2833
▁toast	-2834
▁knows	-2835
▁foolish	-2836
▁My	-2837
▁falls	-2838
▁Nemo	-2839
▁stubborn	-2840
▁fridge	-2841
▁lean	-2842
apping	-2843
▁unl	-2844
ye	-2845
▁nicely	-2846
atch	-2847
▁shape	-2848
▁movie	-2849
▁fier	-2850
▁Ge	-2851
omed	-2852
▁cudd	-2853
▁rough	-2854
▁dreams	-2855
▁nosy	-2856
▁city	-2857
▁space	-2858
▁houses	-2859
▁bloom	-2860
▁fat	-2861
▁obedient	-2862
▁delicate	-2863
▁fierce	-2864
▁grandpa	-2865
▁office	-2866
az	-2867
ado	-2868
laimed	-2869
▁tomato	-2870
▁suggested	-2871
▁icy	-2872
▁competit	-2873
▁wagon	-2874
▁shark	-2875
▁notice	-2876
pes	-2877
▁exclaimed	-2878
▁dead	-2879
▁kinds	-2880
▁mem	-2881
▁wiped	-2882
▁mixed	-2883
▁shells	-2884
ext	-2885
▁stri	-2886
▁useful	-2887
uth	-2888
▁poured	-2889
œLet	-2890
▁cher	-2891
▁lights	-2892
▁aunt	-2893
▁locked	-2894
▁tools	-2895
▁sounded	-2896
▁stove	-2897
▁thu	-2898
▁explored	-2899
▁excitedly	-2900
wards	-2901
▁frag	-2902
▁rose	-2903
!".	-2904
▁egg	-2905
▁son	-2906
oppy	-2907
▁times	-2908
▁shadow	-2909
▁cro	-2910
▁enc	-2911
▁bags	-2912
▁fountain	-2913
oot	-2914
ention	-2915
▁George	-2916
ache	-2917
dom	-2918
▁themselves	-2919
▁low	-2920
rell	-2921
▁stumbled	-2922
▁bushes	-2923
arry	-2924
▁showing	-2925
▁weal	-2926
▁spoiled	-2927
▁above	-2928
▁fingers	-2929
▁smaller	-2930
▁resc	-2931
▁independ	-2932
▁lab	-2933
▁perform	-2934
▁Ducky	-2935
vice	-2936
▁thoughtful	-2937
kn	-2938
▁witch	-2939
▁jog	-2940
▁dough	-2941
na	-2942
▁fragile	-2943
▁dependable	-2944
▁raced	-2945
ray	-2946
▁eng	-2947
inal	-2948
corn	-2949
▁Whenever	-2950
▁playful	-2951
▁spinning	-2952
▁tele	-2953
▁parrot	-2954
arth	-2955
▁helm	-2956
▁seem	-2957
▁rode	-2958
▁stretch	-2959
▁brightly	-2960
▁print	-2961
ormous	-2962
ines	-2963
▁clock	-2964
▁jam	-2965
▁delighted	-2966
▁admired	-2967
▁enormous	-2968
▁built	-2969
▁Cl	-2970
▁law	-2971
▁Sn	-2972
▁counted	-2973
▁kicked	-2974
▁swe	-2975
▁orig	-2976
▁cop	-2977
▁practice	-2978
▁changed	-2979
▁roof	-2980
▁ways	-2981
▁shone	-2982
reen	-2983
▁rat	-2984
▁twig	-2985
▁reminded	-2986
▁acorn	-2987
▁sunfl	-2988
▁hammer	-2989
▁cam	-2990
ither	-2991
ience	-2992
▁independent	-2993
▁Bill	-2994
eeze	-2995
▁sniff	-2996
▁zip	-2997
▁Your	-2998
▁bitter	-2999
▁using	-3000
▁handed	-3001
▁whispered	-3002
▁Toby	-3003
mbrell	-3004
anut	-3005
▁chose	-3006
known	-3007
▁chir	-3008
▁umbrell	-3009
▁hoop	-3010
▁cone	-3011
▁solve	-3012
▁loll	-3013
▁stronger	-3014
▁steal	-3015
▁tunn	-3016
▁jolly	-3017
▁serious	-3018
▁bees	-3019
▁original	-3020
▁beak	-3021
ipop	-3022
▁tummy	-3023
▁popcorn	-3024
▁terrible	-3025
▁brace	-3026
œYes	-3027
▁mis	-3028
▁lollipop	-3029
▁boats	-3030
ict	-3031
▁painted	-3032
▁fre	-3033
▁allowed	-3034
▁hairy	-3035
▁moder	-3036
▁sauce	-3037
iable	-3038
▁cleaning	-3039
▁unknown	-3040
▁finding	-3041
▁joined	-3042
▁gasped	-3043
▁guard	-3044
▁leaving	-3045
▁potato	-3046
▁dust	-3047
▁salad	-3048
iew	-3049
▁picking	-3050
het	-3051
▁bean	-3052
▁pumpkin	-3053
inary	-3054
amond	-3055
▁clum	-3056
▁dove	-3057
uring	-3058
▁bump	-3059
anger	-3060
▁Joey	-3061
▁sink	-3062
▁costum	-3063
▁tank	-3064
▁half	-3065
▁yet	-3066
▁metal	-3067
▁dolphin	-3068
▁reliable	-3069
▁bounce	-3070
▁view	-3071
▁tor	-3072
▁doesn	-3073
▁diamond	-3074
▁those	-3075
robe	-3076
▁post	-3077
▁forth	-3078
▁stamp	-3079
aghet	-3080
aghetti	-3081
▁advice	-3082
▁rubb	-3083
com	-3084
▁hay	-3085
pid	-3086
▁modern	-3087
▁barber	-3088
▁ing	-3089
▁thinking	-3090
gu	-3091
▁gem	-3092
▁holds	-3093
▁pirate	-3094
▁regular	-3095
▁marble	-3096
ebra	-3097
▁Pe	-3098
ugged	-3099
redient	-3100
How	-3101
▁ingredient	-3102
▁create	-3103
▁yarn	-3104
▁clumsy	-3105
▁sleeping	-3106
▁searching	-3107
▁rushed	-3108
▁stairs	-3109
ilty	-3110
▁wealthy	-3111
▁prep	-3112
▁stupid	-3113
▁guilty	-3114
See	-3115
▁telling	-3116
▁peanut	-3117
▁cheap	-3118
▁spaghetti	-3119
▁goose	-3120
œWhat	-3121
▁char	-3122
▁flex	-3123
▁mask	-3124
cu	-3125
ations	-3126
▁compass	-3127
▁patch	-3128
▁rub	-3129
▁magn	-3130
▁engine	-3131
▁stat	-3132
▁opens	-3133
▁Polly	-3134
▁Andy	-3135
▁arrow	-3136
▁zebra	-3137
▁Ba	-3138
▁Sophie	-3139
▁square	-3140
io	-3141
illa	-3142
▁knock	-3143
▁thunder	-3144
▁Bear	-3145
eezed	-3146
irsty	-3147
▁umbrella	-3148
▁angel	-3149
▁cur	-3150
▁camera	-3151
▁crazy	-3152
cod	-3153
▁driving	-3154
▁graceful	-3155
▁shiver	-3156
▁beet	-3157
▁washed	-3158
▁popular	-3159
▁bull	-3160
▁carrying	-3161
▁dull	-3162
▁stage	-3163
shion	-3164
umbers	-3165
▁Alex	-3166
isk	-3167
▁missing	-3168
▁sparkled	-3169
œIt	-3170
fa	-3171
▁friendship	-3172
▁truth	-3173
▁meal	-3174
▁seeds	-3175
Go	-3176
▁flexible	-3177
▁comb	-3178
▁impressive	-3179
▁tied	-3180
▁library	-3181
▁sne	-3182
time	-3183
▁pebble	-3184
▁careless	-3185
▁jacket	-3186
▁patter	-3187
▁deliver	-3188
▁fresh	-3189
▁imagined	-3190
▁shel	-3191
▁nature	-3192
▁persist	-3193
▁ending	-3194
▁reward	-3195
▁destro	-3196
ision	-3197
▁handle	-3198
▁rubbed	-3199
▁ingredients	-3200
▁dreaming	-3201
▁shocked	-3202
ric	-3203
▁load	-3204
▁prize	-3205
▁sudden	-3206
▁crocod	-3207
oomy	-3208
▁pattern	-3209
ief	-3210
▁pige	-3211
▁compassion	-3212
ibb	-3213
▁enth	-3214
▁flashlight	-3215
▁sadly	-3216
▁Next	-3217
▁thirsty	-3218
▁envel	-3219
▁encou	-3220
arsh	-3221
▁stranger	-3222
ince	-3223
œLetâ	-3224
▁wheels	-3225
▁enthus	-3226
ement	-3227
▁fork	-3228
▁discover	-3229
▁Charl	-3230
▁tem	-3231
▁reading	-3232
▁numbers	-3233
▁desk	-3234
▁early	-3235
▁suit	-3236
▁wire	-3237
▁penny	-3238
▁peeked	-3239
▁butterflies	-3240
▁mailbox	-3241
▁cryst	-3242
▁spilled	-3243
awn	-3244
▁gum	-3245
▁bracelet	-3246
▁torn	-3247
loo	-3248
▁rug	-3249
▁stops	-3250
▁env	-3251
▁comput	-3252
▁rece	-3253
bled	-3254
▁Paul	-3255
▁ahead	-3256
▁surf	-3257
▁anx	-3258
▁sorts	-3259
▁spring	-3260
ellig	-3261
comfort	-3262
▁cere	-3263
▁order	-3264
▁object	-3265
▁towers	-3266
▁bent	-3267
▁warned	-3268
▁wing	-3269
▁pengu	-3270
▁humble	-3271
oe	-3272
▁intellig	-3273
▁earth	-3274
▁pup	-3275
▁spoke	-3276
gest	-3277
▁windows	-3278
There	-3279
▁uncomfort	-3280
▁placed	-3281
▁avo	-3282
▁pow	-3283
iches	-3284
▁uncomfortable	-3285
▁super	-3286
▁pant	-3287
▁travel	-3288
Yay	-3289
▁pale	-3290
▁badly	-3291
▁note	-3292
▁anxious	-3293
▁sunflower	-3294
▁slides	-3295
▁older	-3296
▁trap	-3297
▁scale	-3298
▁biggest	-3299
▁compl	-3300
ikes	-3301
▁flute	-3302
▁stack	-3303
▁couldnâ	-3304
▁scoot	-3305
▁statue	-3306
▁growing	-3307
Ow	-3308
▁counting	-3309
▁cooking	-3310
▁beetle	-3311
▁tunnel	-3312
▁celebrate	-3313
▁complet	-3314
▁liz	-3315
▁mel	-3316
host	-3317
▁sofa	-3318
▁cupboard	-3319
▁harmless	-3320
▁mush	-3321
▁scatter	-3322
▁nail	-3323
▁mole	-3324
▁Here	-3325
▁beauty	-3326
They	-3327
▁Pat	-3328
▁value	-3329
▁nurse	-3330
▁perm	-3331
▁deaf	-3332
▁persistent	-3333
▁hung	-3334
▁er	-3335
▁shut	-3336
▁jumps	-3337
▁crocodile	-3338
▁crane	-3339
▁ghost	-3340
▁gifted	-3341
▁trick	-3342
▁charming	-3343
▁refused	-3344
▁Give	-3345
▁neat	-3346
▁names	-3347
▁courage	-3348
▁yawn	-3349
▁curt	-3350
▁flour	-3351
cream	-3352
▁raven	-3353
opus	-3354
▁base	-3355
▁pony	-3356
▁cereal	-3357
▁Hen	-3358
ctopus	-3359
▁tur	-3360
ices	-3361
▁sandwiches	-3362
▁pretending	-3363
▁curtain	-3364
▁support	-3365
▁snuggled	-3366
▁ordinary	-3367
▁destroy	-3368
▁chasing	-3369
aid	-3370
▁univer	-3371
▁question	-3372
aches	-3373
▁Look	-3374
▁triang	-3375
▁envelope	-3376
▁drawer	-3377
▁sett	-3378
ud	-3379
▁camp	-3380
▁computer	-3381
▁crawl	-3382
▁lively	-3383
▁vi	-3384
▁send	-3385
▁attract	-3386
▁rules	-3387
▁octopus	-3388
▁gloomy	-3389
▁cartoon	-3390
▁intelligent	-3391
▁uncle	-3392
▁may	-3393
ips	-3394
▁piano	-3395
▁speed	-3396
▁crystal	-3397
▁collar	-3398
▁package	-3399
▁turkey	-3400
▁shaking	-3401
▁helmet	-3402
▁parade	-3403
▁blueber	-3404
▁mushroom	-3405
▁fu	-3406
▁needle	-3407
▁creatures	-3408
▁phot	-3409
▁twirled	-3410
▁hurry	-3411
heart	-3412
aff	-3413
stri	-3414
He	-3415
œThat	-3416
▁lizard	-3417
orant	-3418
erable	-3419
ubby	-3420
ceed	-3421
▁alert	-3422
▁task	-3423
gust	-3424
▁soldier	-3425
▁thief	-3426
▁station	-3427
▁miserable	-3428
und	-3429
▁pepper	-3430
▁Will	-3431
▁Grace	-3432
▁hunter	-3433
▁fireman	-3434
▁bicy	-3435
▁disgust	-3436
▁anywhere	-3437
▁dug	-3438
cut	-3439
▁carp	-3440
▁ener	-3441
iest	-3442
▁seal	-3443
▁Henry	-3444
▁resist	-3445
▁Before	-3446
▁Brownie	-3447
▁wishes	-3448
ses	-3449
▁led	-3450
▁vide	-3451
coa	-3452
▁ignorant	-3453
▁Charlie	-3454
▁beep	-3455
▁bandage	-3456
▁helpless	-3457
▁stickers	-3458
▁bounced	-3459
▁screen	-3460
▁repe	-3461
tter	-3462
Give	-3463
▁radio	-3464
▁practiced	-3465
▁trash	-3466
▁Annie	-3467
▁second	-3468
▁shine	-3469
▁muff	-3470
▁leash	-3471
▁chance	-3472
▁impat	-3473
▁mill	-3474
▁letters	-3475
▁attractive	-3476
▁cube	-3477
▁tooth	-3478
▁stretched	-3479
▁stirred	-3480
▁nobody	-3481
▁thread	-3482
ummer	-3483
▁chubby	-3484
urb	-3485
▁pand	-3486
▁cricket	-3487
▁Sh	-3488
▁jeep	-3489
▁pasta	-3490
▁pigeon	-3491
▁compassionate	-3492
▁jet	-3493
▁gir	-3494
▁trump	-3495
▁Tweetie	-3496
If	-3497
▁decorate	-3498
ne	-3499
▁tire	-3500
orable	-3501
▁cocoa	-3502
▁brighter	-3503
▁club	-3504
▁disturb	-3505
▁steps	-3506
ccol	-3507
▁succeed	-3508
▁impatient	-3509
ccoli	-3510
▁Jerry	-3511
▁competitive	-3512
▁respectful	-3513
arian	-3514
▁further	-3515
▁Bet	-3516
▁jug	-3517
▁otter	-3518
▁troubled	-3519
▁itself	-3520
▁pressed	-3521
aked	-3522
noon	-3523
▁candle	-3524
▁bet	-3525
▁afternoon	-3526
olin	-3527
▁attic	-3528
▁starts	-3529
▁ostri	-3530
▁mug	-3531
▁pun	-3532
▁restless	-3533
▁tap	-3534
▁Tr	-3535
▁somewhere	-3536
▁carpet	-3537
illie	-3538
▁Sandy	-3539
▁Are	-3540
▁ribb	-3541
▁shoe	-3542
▁disgusting	-3543
▁dess	-3544
▁tray	-3545
▁waff	-3546
▁anyway	-3547
▁quar	-3548
▁allig	-3549
▁adorable	-3550
stic	-3551
aurant	-3552
▁vine	-3553
▁skip	-3554
▁shouts	-3555
▁fort	-3556
▁gor	-3557
▁nuts	-3558
▁leop	-3559
▁Lilly	-3560
▁case	-3561
gn	-3562
▁restaurant	-3563
▁fearful	-3564
▁Where	-3565
▁envious	-3566
▁pants	-3567
▁screw	-3568
come	-3569
opter	-3570
icopter	-3571
▁sweetheart	-3572
▁cards	-3573
▁filthy	-3574
▁distant	-3575
iastic	-3576
▁trumpet	-3577
▁enthusiastic	-3578
▁exper	-3579
▁giggle	-3580
▁hipp	-3581
▁Mag	-3582
▁broccoli	-3583
▁cooked	-3584
▁Everything	-3585
▁Lee	-3586
▁helicopter	-3587
▁monkeys	-3588
▁Danny	-3589
aroo	-3590
angaroo	-3591
▁hook	-3592
night	-3593
▁reco	-3594
▁harsh	-3595
▁por	-3596
▁sandbox	-3597
▁Would	-3598
irit	-3599
▁ten	-3600
▁nowhere	-3601
▁backpack	-3602
▁soar	-3603
gging	-3604
▁admire	-3605
▁sent	-3606
▁bri	-3607
cycle	-3608
▁batht	-3609
▁scooter	-3610
▁pipe	-3611
▁explain	-3612
▁belt	-3613
▁meas	-3614
gie	-3615
▁bathtub	-3616
opl	-3617
▁ants	-3618
eropl	-3619
▁country	-3620
▁barking	-3621
▁kangaroo	-3622
▁Snow	-3623
▁quite	-3624
▁poem	-3625
▁unpack	-3626
par	-3627
▁aeropl	-3628
stairs	-3629
▁speak	-3630
▁spell	-3631
▁Maria	-3632
nna	-3633
▁cows	-3634
▁lid	-3635
▁happier	-3636
▁leopard	-3637
imi	-3638
▁squash	-3639
▁bicycle	-3640
▁repair	-3641
▁mama	-3642
▁separ	-3643
▁listening	-3644
▁Jess	-3645
▁summer	-3646
▁Pap	-3647
▁Sm	-3648
▁stared	-3649
▁firework	-3650
▁breat	-3651
▁Millie	-3652
▁Baby	-3653
▁message	-3654
uct	-3655
▁didnâ	-3656
▁grabs	-3657
▁loop	-3658
▁mule	-3659
▁given	-3660
▁comet	-3661
▁ostrich	-3662
hood	-3663
▁human	-3664
▁gorilla	-3665
▁Bunny	-3666
▁sort	-3667
▁paid	-3668
▁impro	-3669
year	-3670
▁yogurt	-3671
▁modest	-3672
▁finds	-3673
▁obser	-3674
▁dessert	-3675
▁meat	-3676
▁alligator	-3677
▁ur	-3678
ipping	-3679
▁hedge	-3680
▁violin	-3681
Bye	-3682
▁Ted	-3683
▁melon	-3684
▁spirit	-3685
▁jellyfish	-3686
▁Papa	-3687
▁pulls	-3688
▁split	-3689
▁rescue	-3690
▁tripped	-3691
ucked	-3692
▁paws	-3693
▁Harry	-3694
▁prov	-3695
▁size	-3696
▁five	-3697
▁wheat	-3698
▁holes	-3699
▁Mimi	-3700
▁forgave	-3701
▁roared	-3702
▁fle	-3703
▁cats	-3704
▁purse	-3705
ophone	-3706
▁pilot	-3707
▁recogn	-3708
▁raft	-3709
▁hippo	-3710
▁hall	-3711
▁tax	-3712
▁cact	-3713
▁sheet	-3714
▁pushing	-3715
▁swinging	-3716
▁inse	-3717
▁organize	-3718
▁bikes	-3719
▁sle	-3720
ci	-3721
▁pal	-3722
▁scold	-3723
▁behave	-3724
▁rice	-3725
▁salt	-3726
▁shade	-3727
▁haircut	-3728
▁starting	-3729
▁Buddy	-3730
▁oat	-3731
▁bin	-3732
▁lightning	-3733
▁triangle	-3734
▁brus	-3735
▁buzz	-3736
eer	-3737
▁energy	-3738
bul	-3739
lcano	-3740
œYou	-3741
▁riding	-3742
▁ped	-3743
iskers	-3744
aled	-3745
▁bur	-3746
▁porch	-3747
▁frowned	-3748
▁knot	-3749
▁either	-3750
▁lear	-3751
▁math	-3752
▁learnt	-3753
ebook	-3754
▁lip	-3755
seum	-3756
iling	-3757
▁notebook	-3758
Anna	-3759
▁trains	-3760
▁ended	-3761
▁wallet	-3762
inking	-3763
▁chalk	-3764
▁bananas	-3765
▁lend	-3766
▁luck	-3767
▁cactus	-3768
reci	-3769
▁panda	-3770
▁evening	-3771
▁sticker	-3772
▁sweater	-3773
▁rod	-3774
▁papers	-3775
▁volcano	-3776
▁Whiskers	-3777
▁museum	-3778
▁jokes	-3779
▁appreci	-3780
ube	-3781
▁lions	-3782
▁palace	-3783
▁taxi	-3784
▁boots	-3785
▁bears	-3786
▁strawberry	-3787
▁rolling	-3788
▁neighbour	-3789
▁chain	-3790
▁shopkeeper	-3791
▁Tony	-3792
▁barrel	-3793
▁micr	-3794
▁hadn	-3795
astic	-3796
▁eras	-3797
TMm	-3798
▁shakes	-3799
ffe	-3800
icer	-3801
ooped	-3802
▁mild	-3803
▁silver	-3804
ffee	-3805
▁laund	-3806
urch	-3807
play	-3808
▁alive	-3809
▁reind	-3810
▁smells	-3811
▁laundry	-3812
▁steak	-3813
▁sock	-3814
▁strugg	-3815
iron	-3816
▁pole	-3817
▁goal	-3818
▁avoc	-3819
▁ink	-3820
▁microphone	-3821
▁putting	-3822
▁softly	-3823
▁pushes	-3824
▁visited	-3825
▁ol	-3826
edy	-3827
▁tricks	-3828
▁clapping	-3829
▁magnet	-3830
▁judge	-3831
▁drawings	-3832
▁shield	-3833
▁pad	-3834
▁James	-3835
▁falling	-3836
▁tube	-3837
▁colours	-3838
▁sailor	-3839
▁leaned	-3840
▁shovel	-3841
▁airport	-3842
▁zoomed	-3843
▁hive	-3844
▁shelter	-3845
▁Bun	-3846
▁Inst	-3847
▁belongs	-3848
▁ambul	-3849
▁unlock	-3850
▁penguin	-3851
▁sprink	-3852
▁checked	-3853
▁insist	-3854
happy	-3855
▁rag	-3856
▁quarrel	-3857
▁marched	-3858
elery	-3859
▁climbing	-3860
hino	-3861
▁display	-3862
cast	-3863
▁reindeer	-3864
▁gro	-3865
▁oy	-3866
▁saus	-3867
▁aeroplane	-3868
ense	-3869
▁avail	-3870
▁dishes	-3871
ophy	-3872
▁dive	-3873
▁polish	-3874
▁donâ	-3875
▁ambulance	-3876
▁grapes	-3877
▁barks	-3878
▁fields	-3879
ges	-3880
▁Maggie	-3881
▁elev	-3882
▁sandcast	-3883
▁peek	-3884
▁apologized	-3885
▁yach	-3886
▁skill	-3887
▁trophy	-3888
sely	-3889
▁coffee	-3890
ait	-3891
▁costume	-3892
▁soil	-3893
▁Or	-3894
▁hoping	-3895
anic	-3896
▁planet	-3897
▁rubber	-3898
▁feelings	-3899
▁unhappy	-3900
▁art	-3901
▁medal	-3902
▁elevator	-3903
ron	-3904
▁raining	-3905
chanic	-3906
▁drops	-3907
▁film	-3908
▁kitty	-3909
▁rhino	-3910
▁shrimp	-3911
nger	-3912
▁prun	-3913
▁available	-3914
▁minute	-3915
▁cord	-3916
▁thanks	-3917
▁stom	-3918
▁marry	-3919
▁men	-3920
▁wool	-3921
▁incl	-3922
ected	-3923
▁fisher	-3924
▁shouldn	-3925
▁basketball	-3926
▁herb	-3927
▁celery	-3928
▁bul	-3929
reeze	-3930
▁onion	-3931
▁short	-3932
▁yacht	-3933
▁perfectly	-3934
▁eraser	-3935
▁mechanic	-3936
▁page	-3937
▁imagine	-3938
▁winter	-3939
▁rever	-3940
▁flies	-3941
nam	-3942
▁appl	-3943
▁complete	-3944
▁diary	-3945
▁Ab	-3946
aused	-3947
▁closely	-3948
▁insect	-3949
▁magaz	-3950
▁cardboard	-3951
▁eagerly	-3952
▁journal	-3953
enny	-3954
▁player	-3955
▁vend	-3956
▁Smith	-3957
▁baking	-3958
Ha	-3959
▁disag	-3960
▁furn	-3961
iture	-3962
▁quit	-3963
▁Clara	-3964
▁glove	-3965
▁bulb	-3966
azz	-3967
▁furniture	-3968
▁stuffed	-3969
▁treasures	-3970
▁Miss	-3971
▁tub	-3972
gen	-3973
quit	-3974
▁imagination	-3975
▁breaks	-3976
▁skull	-3977
▁headed	-3978
ecause	-3979
▁church	-3980
▁wife	-3981
▁freez	-3982
▁Jul	-3983
▁cooler	-3984
▁frogs	-3985
▁pair	-3986
any	-3987
▁counter	-3988
▁tut	-3989
▁knob	-3990
mand	-3991
▁pit	-3992
▁switch	-3993
ween	-3994
ories	-3995
ctory	-3996
▁football	-3997
ifl	-3998
▁sym	-3999
aulifl	-4000
▁Instead	-4001
▁sunset	-4002
place	-4003
▁offer	-4004
ides	-4005
▁between	-4006
▁lie	-4007
▁cheek	-4008
▁mos	-4009
quito	-4010
pe	-4011
▁motorcycle	-4012
▁factory	-4013
▁cups	-4014
▁swung	-4015
Dad	-4016
▁chirp	-4017
right	-4018
▁shouting	-4019
▁flame	-4020
▁twink	-4021
▁blowing	-4022
kelet	-4023
..	-4024
▁peach	-4025
▁sung	-4026
▁hut	-4027
▁caulifl	-4028
▁golf	-4029
bol	-4030
nament	-4031
▁painter	-4032
lass	-4033
▁vendor	-4034
affe	-4035
▁ornament	-4036
▁seeing	-4037
▁video	-4038
▁hotel	-4039
▁mosquito	-4040
ccer	-4041
▁folder	-4042
▁pirates	-4043
▁May	-4044
izes	-4045
▁cushion	-4046
▁coal	-4047
▁created	-4048
▁kay	-4049
▁throws	-4050
▁symbol	-4051
▁mixer	-4052
▁heads	-4053
▁oil	-4054
▁frame	-4055
orses	-4056
mm	-4057
▁fisherman	-4058
angu	-4059
zzy	-4060
▁soccer	-4061
ceros	-4062
▁popped	-4063
▁Ste	-4064
▁cable	-4065
▁skelet	-4066
▁cauliflower	-4067
▁pine	-4068
▁battery	-4069
▁horses	-4070
▁attention	-4071
▁wipe	-4072
▁langu	-4073
▁stud	-4074
ab	-4075
▁God	-4076
▁forgotten	-4077
ef	-4078
▁laser	-4079
▁lives	-4080
▁weather	-4081
osie	-4082
▁ax	-4083
▁celebrated	-4084
▁powder	-4085
rod	-4086
render	-4087
▁mop	-4088
▁since	-4089
▁trail	-4090
▁fishing	-4091
▁rot	-4092
aws	-4093
▁Iâ	-4094
▁photo	-4095
▁surround	-4096
▁maze	-4097
▁slept	-4098
ites	-4099
elcome	-4100
▁waving	-4101
▁yoga	-4102
▁rhinoceros	-4103
unately	-4104
▁sneak	-4105
▁anch	-4106
▁dear	-4107
ple	-4108
▁introd	-4109
▁giraffe	-4110
▁poke	-4111
▁swamp	-4112
▁points	-4113
▁flea	-4114
▁itch	-4115
lasses	-4116
▁breeze	-4117
▁point	-4118
▁glowing	-4119
▁fireplace	-4120
▁itâ	-4121
ney	-4122
▁sunglasses	-4123
▁True	-4124
▁kingdom	-4125
▁vet	-4126
Your	-4127
▁sub	-4128
▁iron	-4129
▁tutor	-4130
▁memories	-4131
▁streng	-4132
spap	-4133
▁petals	-4134
▁vest	-4135
▁reve	-4136
▁tuna	-4137
Max	-4138
▁axe	-4139
▁parent	-4140
▁Tina	-4141
▁complain	-4142
▁mistakes	-4143
▁baseball	-4144
▁newspap	-4145
▁dancer	-4146
hero	-4147
▁ceiling	-4148
▁fog	-4149
▁ig	-4150
▁chickens	-4151
▁greedy	-4152
rosc	-4153
▁strength	-4154
ckey	-4155
▁igloo	-4156
▁squirrels	-4157
▁hockey	-4158
▁skeleton	-4159
chie	-4160
▁grin	-4161
▁anchor	-4162
▁sir	-4163
▁superhero	-4164
ues	-4165
▁argue	-4166
▁golden	-4167
▁sniffed	-4168
▁napkin	-4169
▁grocer	-4170
▁musician	-4171
roscope	-4172
▁trave	-4173
▁temple	-4174
▁staff	-4175
▁hanging	-4176
medi	-4177
▁unif	-4178
▁skirt	-4179
▁bury	-4180
▁agree	-4181
mediately	-4182
▁sque	-4183
▁discu	-4184
▁uniform	-4185
▁eaten	-4186
▁theater	-4187
▁meeting	-4188
▁microscope	-4189
istol	-4190
▁slipper	-4191
▁welcomed	-4192
▁zipper	-4193
▁shoulder	-4194
▁invest	-4195
▁quietly	-4196
ssible	-4197
▁seas	-4198
sing	-4199
▁pistol	-4200
▁lime	-4201
▁pinch	-4202
oh	-4203
▁flapped	-4204
chair	-4205
▁investig	-4206
▁slippery	-4207
erc	-4208
▁miner	-4209
▁fought	-4210
▁radish	-4211
▁accepted	-4212
▁throwing	-4213
reek	-4214
▁doors	-4215
▁bouncing	-4216
men	-4217
▁plastic	-4218
▁cob	-4219
house	-4220
▁calls	-4221
▁sticky	-4222
▁creek	-4223
tress	-4224
▁pear	-4225
▁mattress	-4226
▁kayak	-4227
tain	-4228
▁surrender	-4229
▁moves	-4230
aces	-4231
▁novel	-4232
alley	-4233
▁vroom	-4234
Wait	-4235
▁cub	-4236
▁cared	-4237
▁freezer	-4238
▁lawy	-4239
▁suff	-4240
▁avocado	-4241
ison	-4242
ler	-4243
aud	-4244
▁lotion	-4245
▁First	-4246
case	-4247
▁writing	-4248
▁reef	-4249
▁fauc	-4250
▁news	-4251
te	-4252
inked	-4253
▁oyster	-4254
▁armchair	-4255
was	-4256
web	-4257
▁valley	-4258
▁makeup	-4259
▁investigate	-4260
Timmy	-4261
▁sailing	-4262
▁mystery	-4263
llie	-4264
▁tug	-4265
▁regret	-4266
▁cherries	-4267
▁crib	-4268
▁exerc	-4269
▁faucet	-4270
washer	-4271
imney	-4272
▁worth	-4273
▁splashing	-4274
▁ticket	-4275
▁toil	-4276
▁collected	-4277
▁sprayed	-4278
▁agre	-4279
▁magazine	-4280
▁chimney	-4281
▁presents	-4282
▁prevent	-4283
▁wags	-4284
▁cobweb	-4285
▁happens	-4286
▁dishwasher	-4287
œItâ	-4288
▁passport	-4289
▁entered	-4290
▁quack	-4291
▁tear	-4292
▁castles	-4293
▁scolded	-4294
▁veil	-4295
▁shrugged	-4296
▁Freddy	-4297
▁har	-4298
▁separate	-4299
▁applaud	-4300
Thanks	-4301
▁weigh	-4302
▁toilet	-4303
ives	-4304
▁chess	-4305
▁alarm	-4306
▁blankets	-4307
▁rake	-4308
▁tucked	-4309
▁ignored	-4310
▁See	-4311
▁choice	-4312
▁lawyer	-4313
ived	-4314
sit	-4315
▁coats	-4316
▁kisses	-4317
▁classroom	-4318
▁candles	-4319
▁puddles	-4320
▁hopes	-4321
▁attach	-4322
▁appro	-4323
▁follows	-4324
▁easily	-4325
ety	-4326
▁apart	-4327
ring	-4328
▁Sad	-4329
▁beef	-4330
▁disappear	-4331
▁chairs	-4332
▁burned	-4333
▁bother	-4334
▁Me	-4335
▁straight	-4336
▁letting	-4337
▁yield	-4338
eterin	-4339
eterinarian	-4340
▁Milly	-4341
▁dressed	-4342
▁cane	-4343
▁trusted	-4344
▁veterinarian	-4345
▁raz	-4346
▁ward	-4347
▁sizes	-4348
▁teleph	-4349
▁language	-4350
▁caring	-4351
▁blinked	-4352
Sam	-4353
raged	-4354
atched	-4355
▁rise	-4356
▁jewelry	-4357
uby	-4358
▁planes	-4359
iday	-4360
▁wardrobe	-4361
▁requ	-4362
▁shower	-4363
▁keeping	-4364
▁oak	-4365
vision	-4366
▁stable	-4367
▁missile	-4368
▁However	-4369
▁crossed	-4370
▁ble	-4371
▁lawn	-4372
▁newspaper	-4373
▁claws	-4374
▁telephone	-4375
▁bookshe	-4376
▁cabinet	-4377
▁stro	-4378
▁puzzles	-4379
▁sigh	-4380
▁trade	-4381
mend	-4382
▁rooms	-4383
ival	-4384
▁cell	-4385
▁aut	-4386
▁whisper	-4387
▁incre	-4388
▁inf	-4389
una	-4390
▁scratch	-4391
▁tornado	-4392
▁snap	-4393
anges	-4394
▁bookcase	-4395
▁amazement	-4396
▁blueberries	-4397
ampoo	-4398
ction	-4399
▁squeezed	-4400
ommend	-4401
▁bookshelf	-4402
▁perfu	-4403
▁recommend	-4404
▁delay	-4405
▁opera	-4406
▁pra	-4407
▁subway	-4408
atie	-4409
▁grill	-4410
▁gym	-4411
▁razor	-4412
▁television	-4413
▁request	-4414
▁Help	-4415
ggy	-4416
▁crawling	-4417
▁pur	-4418
▁poked	-4419
omes	-4420
iction	-4421
€.	-4422
▁following	-4423
▁bill	-4424
▁hol	-4425
▁blouse	-4426
▁spear	-4427
▁mint	-4428
▁experience	-4429
Because	-4430
▁licks	-4431
▁squeeze	-4432
And	-4433
▁file	-4434
▁holiday	-4435
▁Is	-4436
▁lumber	-4437
▁shampoo	-4438
Sara	-4439
▁steam	-4440
▁demand	-4441
▁crow	-4442
ictionary	-4443
▁improve	-4444
▁serve	-4445
fortunately	-4446
▁ringing	-4447
▁cliff	-4448
ah	-4449
▁ribbon	-4450
▁perfume	-4451
▁Fo	-4452
▁immediately	-4453
▁helper	-4454
▁fest	-4455
bbie	-4456
▁muffin	-4457
▁dictionary	-4458
▁growled	-4459
▁begged	-4460
▁shrink	-4461
▁isn	-4462
▁matches	-4463
▁ideas	-4464
▁warmth	-4465
▁prop	-4466
ib	-4467
▁mustache	-4468
▁blood	-4469
▁waste	-4470
▁birdc	-4471
▁sneeze	-4472
▁invite	-4473
hic	-4474
▁Snowy	-4475
▁vehic	-4476
▁People	-4477
ups	-4478
▁Luck	-4479
▁rabbits	-4480
▁birdcage	-4481
▁alright	-4482
▁gear	-4483
▁fuel	-4484
▁weep	-4485
▁ignore	-4486
▁married	-4487
▁yucky	-4488
▁Luckily	-4489
▁instr	-4490
▁flutter	-4491
▁fallen	-4492
alend	-4493
asis	-4494
▁berry	-4495
▁calend	-4496
▁refre	-4497
▁Each	-4498
▁row	-4499
▁rail	-4500
lier	-4501
▁pastry	-4502
Did	-4503
▁laught	-4504
▁worms	-4505
▁bravely	-4506
▁Liz	-4507
▁below	-4508
ucture	-4509
▁wigg	-4510
▁kneel	-4511
▁structure	-4512
▁wandered	-4513
▁surprises	-4514
ising	-4515
▁understanding	-4516
▁pages	-4517
▁hurting	-4518
▁laughter	-4519
▁dire	-4520
▁oasis	-4521
▁calendar	-4522
▁airpl	-4523
▁drain	-4524
▁Ollie	-4525
Ok	-4526
omeday	-4527
▁hearts	-4528
▁enter	-4529
▁item	-4530
inky	-4531
▁harb	-4532
omob	-4533
▁crash	-4534
▁safety	-4535
▁apron	-4536
▁float	-4537
▁reaches	-4538
œNo	-4539
▁buried	-4540
▁bathe	-4541
Is	-4542
▁automob	-4543
achel	-4544
▁admir	-4545
▁captain	-4546
▁junk	-4547
▁root	-4548
▁strawberries	-4549
▁relaxed	-4550
▁buckle	-4551
▁myself	-4552
▁sandcastle	-4553
htray	-4554
▁skills	-4555
oral	-4556
▁plates	-4557
▁whip	-4558
▁moments	-4559
▁ashtray	-4560
▁Steve	-4561
▁spade	-4562
Welcome	-4563
▁reverse	-4564
▁Who	-4565
icing	-4566
▁Joy	-4567
▁festival	-4568
▁quiz	-4569
TMre	-4570
'.	-4571
riger	-4572
▁Co	-4573
▁score	-4574
▁Betsy	-4575
cakes	-4576
▁beamed	-4577
▁refriger	-4578
▁snapped	-4579
▁raise	-4580
▁Everyday	-4581
▁someday	-4582
ari	-4583
▁refrigerator	-4584
▁received	-4585
Yuck	-4586
▁earlier	-4587
▁tong	-4588
▁vac	-4589
▁model	-4590
▁weap	-4591
▁teaching	-4592
▁mass	-4593
▁harbor	-4594
▁lic	-4595
▁Its	-4596
aped	-4597
▁saving	-4598
▁vanished	-4599
▁sparkling	-4600
eady	-4601
▁insisted	-4602
▁spots	-4603
▁bumped	-4604
▁socks	-4605
▁Buzz	-4606
▁thumb	-4607
anna	-4608
▁supply	-4609
xy	-4610
▁dried	-4611
ission	-4612
▁Penny	-4613
▁prepare	-4614
▁toes	-4615
igail	-4616
▁jewels	-4617
▁jail	-4618
▁balan	-4619
▁Poppy	-4620
▁spending	-4621
▁blackboard	-4622
TMll	-4623
▁scattered	-4624
▁scooped	-4625
▁settled	-4626
▁sparkle	-4627
▁permission	-4628
amber	-4629
▁known	-4630
ctly	-4631
nce	-4632
▁breathe	-4633
▁boot	-4634
▁Frank	-4635
▁yawned	-4636
▁achie	-4637
▁destroyed	-4638
▁waffle	-4639
▁res	-4640
▁tease	-4641
▁hardly	-4642
▁Abigail	-4643
antly	-4644
▁replace	-4645
▁bathrobe	-4646
▁encouraged	-4647
▁remain	-4648
▁dare	-4649
▁decorations	-4650
▁pride	-4651
▁lemonade	-4652
sters	-4653
▁remove	-4654
▁pulling	-4655
▁Have	-4656
▁hanger	-4657
ops	-4658
▁sits	-4659
▁cuddled	-4660
▁Dav	-4661
▁daisy	-4662
▁hate	-4663
▁beans	-4664
emy	-4665
uch	-4666
▁respons	-4667
▁port	-4668
▁simp	-4669
▁license	-4670
▁chirping	-4671
▁praised	-4672
reat	-4673
ents	-4674
▁hits	-4675
▁suffer	-4676
▁patiently	-4677
asp	-4678
xture	-4679
▁buzzing	-4680
▁fastest	-4681
▁mention	-4682
▁David	-4683
▁equ	-4684
▁dresses	-4685
▁rhy	-4686
▁wiz	-4687
sity	-4688
nies	-4689
osed	-4690
▁mall	-4691
▁bleed	-4692
▁appreciate	-4693
▁destination	-4694
▁homes	-4695
▁taller	-4696
▁poppy	-4697
▁nation	-4698
▁flav	-4699
▁automobile	-4700
▁digg	-4701
▁guy	-4702
ium	-4703
▁wine	-4704
▁palm	-4705
▁climbs	-4706
▁believed	-4707
▁washing	-4708
▁glo	-4709
▁digging	-4710
▁shot	-4711
▁hesit	-4712
fied	-4713
▁infant	-4714
▁approached	-4715
▁label	-4716
Mmm	-4717
▁deeper	-4718
▁Mat	-4719
▁tore	-4720
ude	-4721
▁none	-4722
▁chamber	-4723
▁restore	-4724
▁mitten	-4725
▁hers	-4726
ores	-4727
▁struggling	-4728
▁sausage	-4729
▁heat	-4730
▁pillows	-4731
▁punish	-4732
▁hills	-4733
rm	-4734
▁tongue	-4735
▁hurric	-4736
▁sneezed	-4737
▁wizard	-4738
▁sport	-4739
▁billboard	-4740
▁brain	-4741
▁provide	-4742
▁discuss	-4743
▁awe	-4744
▁thrilled	-4745
▁upstairs	-4746
▁warning	-4747
▁panic	-4748
▁twisted	-4749
▁universe	-4750
▁glowed	-4751
▁vacation	-4752
▁parts	-4753
▁solved	-4754
▁worse	-4755
▁crunch	-4756
▁firef	-4757
▁poison	-4758
▁Spike	-4759
osity	-4760
▁therm	-4761
▁airplane	-4762
▁setting	-4763
▁event	-4764
▁shed	-4765
bey	-4766
allen	-4767
▁tour	-4768
▁plays	-4769
▁examine	-4770
▁ranch	-4771
▁remained	-4772
▁sparkles	-4773
▁hurricane	-4774
▁neighborhood	-4775
▁floated	-4776
▁invit	-4777
▁thermomet	-4778
▁challen	-4779
▁shooting	-4780
▁chores	-4781
▁oranges	-4782
▁sty	-4783
thm	-4784
▁weeks	-4785
▁leak	-4786
▁university	-4787
shing	-4788
▁repeat	-4789
ging	-4790
▁bites	-4791
▁paints	-4792
▁thermometer	-4793
adium	-4794
▁bang	-4795
▁fixing	-4796
▁floating	-4797
▁measured	-4798
▁supposed	-4799
▁stadium	-4800
▁during	-4801
▁grinned	-4802
▁surrounded	-4803
!",	-4804
!'	-4805
▁rhythm	-4806
aspoon	-4807
▁paused	-4808
nfortunately	-4809
▁conf	-4810
These	-4811
▁brings	-4812
▁fut	-4813
▁massage	-4814
▁gifts	-4815
▁cherry	-4816
▁fasc	-4817
▁future	-4818
▁signs	-4819
▁marbles	-4820
▁sprinkles	-4821
▁collection	-4822
▁teaspoon	-4823
▁grey	-4824
bbles	-4825
œIâ	-4826
▁jazz	-4827
▁memory	-4828
rise	-4829
▁flood	-4830
▁stomach	-4831
▁wisdom	-4832
emember	-4833
▁Cat	-4834
▁discovery	-4835
▁actually	-4836
▁gust	-4837
Would	-4838
▁includ	-4839
▁Good	-4840
▁vehicle	-4841
do	-4842
▁sew	-4843
ishing	-4844
▁lily	-4845
▁tide	-4846
▁girls	-4847
▁sunrise	-4848
▁Chr	-4849
Sp	-4850
vet	-4851
▁meowed	-4852
▁Beth	-4853
ls	-4854
▁elephants	-4855
œThatâ	-4856
ero	-4857
▁chewed	-4858
▁exercise	-4859
▁urge	-4860
▁rush	-4861
▁mailman	-4862
▁lugg	-4863
umble	-4864
▁decision	-4865
▁strang	-4866
▁observe	-4867
▁weapon	-4868
▁unite	-4869
▁luggage	-4870
▁fascin	-4871
▁scur	-4872
iers	-4873
▁possible	-4874
▁cartoons	-4875
▁sore	-4876
▁toe	-4877
▁tomatoes	-4878
▁folded	-4879
▁curled	-4880
allow	-4881
▁Je	-4882
▁grape	-4883
▁melted	-4884
▁rust	-4885
▁sip	-4886
cles	-4887
▁sunlight	-4888
▁chirped	-4889
ities	-4890
▁collecting	-4891
▁spill	-4892
▁Jan	-4893
▁cakes	-4894
uing	-4895
▁mineral	-4896
▁x	-4897
▁Someone	-4898
son	-4899
▁difference	-4900
▁Jam	-4901
▁jogging	-4902
▁problems	-4903
▁tracks	-4904
▁wherever	-4905
▁bes	-4906
▁mountains	-4907
▁bak	-4908
Sh	-4909
▁sliding	-4910
▁manage	-4911
etch	-4912
▁laid	-4913
▁oper	-4914
ipment	-4915
▁watered	-4916
▁Spark	-4917
Not	-4918
▁lick	-4919
▁admiring	-4920
▁satis	-4921
▁contain	-4922
cious	-4923
▁Nina	-4924
▁equipment	-4925
▁potatoes	-4926
▁Fro	-4927
oved	-4928
▁petted	-4929
▁patterns	-4930
▁skipping	-4931
rr	-4932
▁twigs	-4933
eed	-4934
▁kindly	-4935
ncle	-4936
▁seats	-4937
▁bricks	-4938
▁soldiers	-4939
▁emer	-4940
bers	-4941
zag	-4942
▁Thom	-4943
▁slice	-4944
▁Luna	-4945
▁gloves	-4946
▁receive	-4947
joyed	-4948
▁continue	-4949
▁Sund	-4950
▁spaces	-4951
▁lets	-4952
walk	-4953
▁gain	-4954
▁copper	-4955
▁Sunday	-4956
▁strangers	-4957
▁keeper	-4958
▁ordered	-4959
▁overjoyed	-4960
▁gotten	-4961
▁zipped	-4962
▁whistling	-4963
▁pigs	-4964
mother	-4965
▁watches	-4966
▁lands	-4967
▁gaz	-4968
▁beside	-4969
▁safari	-4970
œThank	-4971
▁prayed	-4972
▁beg	-4973
bbled	-4974
▁peered	-4975
▁Thomas	-4976
▁spit	-4977
▁Ad	-4978
▁Not	-4979
▁eff	-4980
▁marching	-4981
▁invitation	-4982
▁ours	-4983
▁network	-4984
▁sidewalk	-4985
▁Moral	-4986
▁earthqu	-4987
ases	-4988
▁eagle	-4989
igzag	-4990
▁acorns	-4991
▁glitter	-4992
▁Josh	-4993
▁wooden	-4994
▁doggy	-4995
▁drinks	-4996
▁disagreed	-4997
irp	-4998
▁weight	-4999
▁weren	-5000
▁Suzy	-5001
▁grocery	-5002
▁navy	-5003
▁attached	-5004
▁Julie	-5005
▁raised	-5006
Yum	-5007
▁Letâ	-5008
▁Chl	-5009
▁beat	-5010
▁company	-5011
▁Sunny	-5012
fy	-5013
hest	-5014
▁mister	-5015
▁onwards	-5016
",	-5017
▁happiest	-5018
▁burning	-5019
▁wre	-5020
▁racing	-5021
▁fed	-5022
▁spoons	-5023
▁Sharing	-5024
▁crashed	-5025
▁brid	-5026
seek	-5027
▁crunchy	-5028
▁Chloe	-5029
▁peanuts	-5030
eally	-5031
▁Sure	-5032
▁hist	-5033
▁meow	-5034
▁hurried	-5035
▁whistled	-5036
nie	-5037
▁price	-5038
▁accom	-5039
▁brick	-5040
▁tremb	-5041
Ouch	-5042
▁flap	-5043
▁officer	-5044
▁refreshed	-5045
▁operation	-5046
▁scratched	-5047
▁history	-5048
▁pies	-5049
▁works	-5050
▁clearing	-5051
▁exa	-5052
▁prepared	-5053
▁fireworks	-5054
▁bowed	-5055
Will	-5056
▁remem	-5057
œWe	-5058
▁lips	-5059
amb	-5060
▁Nut	-5061
▁escaped	-5062
aded	-5063
▁remembers	-5064
▁Am	-5065
▁prune	-5066
▁planted	-5067
▁talent	-5068
▁menu	-5069
▁easier	-5070
▁dinosaurs	-5071
▁buildings	-5072
▁bridges	-5073
▁comfy	-5074
▁revealed	-5075
▁turning	-5076
▁bye	-5077
▁Pr	-5078
▁hated	-5079
▁olive	-5080
▁screams	-5081
▁brand	-5082
▁chat	-5083
▁accompl	-5084
▁recognized	-5085
▁selling	-5086
▁crept	-5087
▁An	-5088
die	-5089
▁warn	-5090
▁snowball	-5091
▁precious	-5092
▁Sadly	-5093
▁landsc	-5094
▁strip	-5095
▁Jamie	-5096
▁padd	-5097
▁muddy	-5098
▁wid	-5099
xygen	-5100
▁drinking	-5101
▁By	-5102
▁sings	-5103
▁settle	-5104
▁Chirp	-5105
▁earthquake	-5106
ecture	-5107
▁beds	-5108
▁simple	-5109
▁pupp	-5110
▁effort	-5111
▁reminder	-5112
cc	-5113
▁slip	-5114
▁Cla	-5115
▁measuring	-5116
▁lecture	-5117
▁perched	-5118
▁spaceship	-5119
▁appear	-5120
▁served	-5121
▁bones	-5122
▁wonders	-5123
▁voices	-5124
▁Ol	-5125
œCan	-5126
▁shadows	-5127
▁waits	-5128
▁everyday	-5129
▁cuddle	-5130
▁pedal	-5131
▁responsible	-5132
ffic	-5133
▁vel	-5134
▁circus	-5135
▁comforted	-5136
▁soared	-5137
▁vict	-5138
▁rained	-5139
▁agreement	-5140
▁pitch	-5141
▁Lu	-5142
▁obey	-5143
▁anytime	-5144
▁succeeded	-5145
▁allow	-5146
▁zigzag	-5147
▁tip	-5148
▁cal	-5149
▁trapped	-5150
▁whatever	-5151
▁tastes	-5152
▁secrets	-5153
▁villag	-5154
▁shopping	-5155
▁apologize	-5156
▁landscape	-5157
▁rang	-5158
▁cutting	-5159
▁velvet	-5160
▁pets	-5161
▁Pip	-5162
▁Mad	-5163
▁printer	-5164
▁bun	-5165
▁disturbed	-5166
anny	-5167
▁traffic	-5168
▁items	-5169
▁bringing	-5170
▁waist	-5171
▁oats	-5172
▁steel	-5173
▁practicing	-5174
▁swims	-5175
▁Anne	-5176
▁rested	-5177
▁exactly	-5178
To	-5179
▁visiting	-5180
▁olives	-5181
▁activ	-5182
abbit	-5183
▁sisters	-5184
▁scoop	-5185
▁Hanna	-5186
▁costumes	-5187
izing	-5188
▁answers	-5189
ien	-5190
mble	-5191
▁brushed	-5192
▁bene	-5193
▁mouths	-5194
ishes	-5195
▁soak	-5196
▁style	-5197
▁fashion	-5198
▁For	-5199
▁curiosity	-5200
▁Big	-5201
neath	-5202
▁rele	-5203
▁ladyb	-5204
▁outdo	-5205
▁breaking	-5206
▁owned	-5207
▁image	-5208
œDon	-5209
▁encourage	-5210
▁Claire	-5211
▁beneath	-5212
mare	-5213
▁fascinated	-5214
icorn	-5215
▁knelt	-5216
▁waffles	-5217
oming	-5218
▁villagers	-5219
▁unicorn	-5220
▁underground	-5221
▁nails	-5222
▁Lucky	-5223
iggy	-5224
▁leather	-5225
terday	-5226
▁sadness	-5227
▁Coco	-5228
▁These	-5229
▁unlocked	-5230
enty	-5231
▁died	-5232
▁catching	-5233
▁Itâ	-5234
▁oxygen	-5235
▁grandmother	-5236
▁recognize	-5237
▁downstairs	-5238
▁Nutty	-5239
▁creation	-5240
▁tremble	-5241
▁Floppy	-5242
▁Gr	-5243
inda	-5244
▁jogged	-5245
isten	-5246
▁chef	-5247
▁monsters	-5248
▁pupil	-5249
ik	-5250
▁eats	-5251
▁nightmare	-5252
▁wanting	-5253
▁doctors	-5254
One	-5255
▁cape	-5256
▁stripes	-5257
▁soaring	-5258
▁Ow	-5259
▁Something	-5260
Spot	-5261
▁struggled	-5262
▁blueberry	-5263
▁famil	-5264
ley	-5265
▁wondering	-5266
rs	-5267
▁bleeding	-5268
▁punished	-5269
▁lemons	-5270
▁gained	-5271
len	-5272
▁Tiny	-5273
▁planned	-5274
▁fetch	-5275
▁Jessie	-5276
▁Betty	-5277
▁nicer	-5278
▁mission	-5279
ayla	-5280
▁Hop	-5281
▁Lul	-5282
▁caut	-5283
▁herbs	-5284
▁guessed	-5285
▁drag	-5286
▁examined	-5287
▁stealing	-5288
▁situ	-5289
uack	-5290
▁area	-5291
▁si	-5292
▁machines	-5293
▁freeze	-5294
▁comple	-5295
▁argued	-5296
▁introduc	-5297
▁piles	-5298
▁stirring	-5299
▁challenge	-5300
▁Carl	-5301
▁ripped	-5302
▁Car	-5303
▁Tilly	-5304
▁six	-5305
▁bend	-5306
▁firemen	-5307
▁studied	-5308
▁tugged	-5309
▁Adam	-5310
▁bare	-5311
▁wagging	-5312
▁zooming	-5313
▁victory	-5314
▁accidents	-5315
She	-5316
Daddy	-5317
▁satisfied	-5318
agull	-5319
▁properly	-5320
▁bunnies	-5321
▁instruct	-5322
▁wreck	-5323
▁winning	-5324
▁keys	-5325
▁Hannah	-5326
▁shivering	-5327
looking	-5328
▁increase	-5329
▁tune	-5330
▁exit	-5331
ding	-5332
▁mice	-5333
▁gathering	-5334
▁Yes	-5335
Or	-5336
▁loaded	-5337
▁outdoors	-5338
▁winner	-5339
▁teasing	-5340
▁firefight	-5341
▁seagull	-5342
▁twirling	-5343
▁decorated	-5344
xu	-5345
▁peel	-5346
▁slapped	-5347
▁pearl	-5348
▁neighbourhood	-5349
▁Matt	-5350
▁sights	-5351
▁supplies	-5352
▁underneath	-5353
▁deser	-5354
▁permit	-5355
▁yelling	-5356
▁Chirpy	-5357
▁Lulu	-5358
▁pancakes	-5359
▁peaches	-5360
▁Aunt	-5361
▁tickets	-5362
▁ann	-5363
▁Abby	-5364
▁begin	-5365
▁rides	-5366
▁siren	-5367
▁burrow	-5368
▁weighed	-5369
▁mixing	-5370
▁released	-5371
▁Bubbles	-5372
▁Susan	-5373
▁Sl	-5374
aky	-5375
▁sneaked	-5376
uxu	-5377
▁draws	-5378
Mama	-5379
indy	-5380
▁confident	-5381
ica	-5382
.'	-5383
▁realize	-5384
▁instructions	-5385
ales	-5386
▁luxu	-5387
▁contro	-5388
▁spiders	-5389
▁dam	-5390
▁introduce	-5391
▁muffins	-5392
▁solut	-5393
▁pinched	-5394
▁budge	-5395
▁zero	-5396
▁letâ	-5397
▁studying	-5398
▁competition	-5399
▁loving	-5400
▁inch	-5401
▁Out	-5402
▁printed	-5403
▁opin	-5404
▁struck	-5405
▁baked	-5406
▁release	-5407
▁beha	-5408
▁Did	-5409
▁pockets	-5410
▁shoulders	-5411
▁bunch	-5412
œLook	-5413
▁frosting	-5414
▁lines	-5415
▁Like	-5416
▁decides	-5417
▁giggling	-5418
▁broom	-5419
▁emergen	-5420
Goodbye	-5421
▁Mir	-5422
▁ourselves	-5423
nes	-5424
▁cones	-5425
▁pastel	-5426
▁travell	-5427
▁web	-5428
▁stamps	-5429
udy	-5430
Happy	-5431
œHello	-5432
▁Stop	-5433
▁stair	-5434
▁ladybug	-5435
ais	-5436
▁Mart	-5437
▁ruler	-5438
ena	-5439
▁sides	-5440
bbing	-5441
▁scurried	-5442
▁marks	-5443
▁tim	-5444
▁grant	-5445
▁stitch	-5446
oed	-5447
▁prunes	-5448
▁strings	-5449
▁Wed	-5450
nesday	-5451
▁poking	-5452
▁drift	-5453
▁pears	-5454
▁repeated	-5455
▁Wednesday	-5456
▁Lou	-5457
gers	-5458
▁ago	-5459
▁keeps	-5460
▁claps	-5461
Ex	-5462
œThis	-5463
anta	-5464
▁crowd	-5465
▁stretching	-5466
eep	-5467
ays	-5468
Ye	-5469
▁ruin	-5470
▁brushes	-5471
kins	-5472
▁demanded	-5473
▁Bir	-5474
▁mentioned	-5475
▁sting	-5476
▁kicking	-5477
▁prints	-5478
▁neighbors	-5479
obo	-5480
▁tonight	-5481
▁touching	-5482
▁mast	-5483
▁sweeties	-5484
owers	-5485
▁protected	-5486
▁writes	-5487
uesday	-5488
va	-5489
jam	-5490
▁youth	-5491
▁Tuesday	-5492
uctantly	-5493
▁goodnight	-5494
Joh	-5495
▁Jeff	-5496
▁buckets	-5497
▁Luke	-5498
▁Santa	-5499
▁ribbons	-5500
bies	-5501
ashed	-5502
▁Linda	-5503
tiest	-5504
▁forgi	-5505
▁vent	-5506
▁parked	-5507
▁soaked	-5508
▁prettiest	-5509
icky	-5510
▁camping	-5511
hins	-5512
▁barely	-5513
▁project	-5514
zie	-5515
▁Both	-5516
▁discovering	-5517
▁horns	-5518
▁bouncy	-5519
exp	-5520
icked	-5521
riage	-5522
œDonâ	-5523
▁Momo	-5524
▁east	-5525
▁twinkling	-5526
▁stole	-5527
▁dent	-5528
▁sorting	-5529
▁expect	-5530
▁surface	-5531
▁vowed	-5532
▁texture	-5533
▁west	-5534
▁gazed	-5535
▁interest	-5536
▁result	-5537
œWhy	-5538
Ah	-5539
▁purred	-5540
▁movies	-5541
▁guys	-5542
▁Afterwards	-5543
▁babies	-5544
▁steep	-5545
▁cautious	-5546
▁shock	-5547
expected	-5548
▁beard	-5549
▁Hoppy	-5550
▁powers	-5551
▁applauded	-5552
zen	-5553
▁control	-5554
▁entire	-5555
thank	-5556
▁pebbles	-5557
▁loose	-5558
▁silence	-5559
▁tickle	-5560
▁urged	-5561
▁guns	-5562
▁acted	-5563
▁luxury	-5564
▁dragons	-5565
▁dragged	-5566
▁unexpected	-5567
▁dolphins	-5568
edding	-5569
▁flat	-5570
ason	-5571
▁emergency	-5572
▁catches	-5573
▁fab	-5574
▁Lizzy	-5575
▁fabric	-5576
▁rocking	-5577
▁chewing	-5578
▁mittens	-5579
ern	-5580
▁Jenna	-5581
▁completed	-5582
▁curtains	-5583
une	-5584
▁muscles	-5585
Mia	-5586
▁strike	-5587
▁blink	-5588
▁direction	-5589
▁Ha	-5590
▁introduced	-5591
uly	-5592
▁Cindy	-5593
▁chips	-5594
▁patience	-5595
▁importance	-5596
▁honk	-5597
▁bank	-5598
▁reluctantly	-5599
▁slim	-5600
eezing	-5601
▁Suzie	-5602
▁season	-5603
▁highest	-5604
▁eight	-5605
▁figured	-5606
▁shivered	-5607
usted	-5608
▁solution	-5609
▁librarian	-5610
▁achieve	-5611
▁rocked	-5612
▁shelves	-5613
▁chases	-5614
▁contest	-5615
▁screaming	-5616
▁frozen	-5617
▁pouring	-5618
▁replac	-5619
Mum	-5620
▁wound	-5621
▁rubbing	-5622
▁theirs	-5623
▁staring	-5624
▁crumb	-5625
▁Lena	-5626
▁hugging	-5627
▁ti	-5628
▁roaring	-5629
œOh	-5630
esome	-5631
▁drives	-5632
▁sorted	-5633
ledge	-5634
▁snail	-5635
John	-5636
over	-5637
▁include	-5638
Somet	-5639
▁safer	-5640
▁Jac	-5641
ateri	-5642
▁materi	-5643
▁Dolly	-5644
▁planets	-5645
fit	-5646
▁situation	-5647
▁greet	-5648
▁policeman	-5649
▁curly	-5650
▁foods	-5651
▁canâ	-5652
▁sighs	-5653
▁knowledge	-5654
itely	-5655
▁usual	-5656
vin	-5657
irts	-5658
▁awesome	-5659
▁passing	-5660
▁shined	-5661
Al	-5662
▁exha	-5663
▁flags	-5664
Mummy	-5665
▁Jon	-5666
▁dared	-5667
▁balancing	-5668
▁matched	-5669
▁youâ	-5670
▁plenty	-5671
▁towels	-5672
▁outfit	-5673
▁slimy	-5674
ults	-5675
▁lied	-5676
though	-5677
▁homework	-5678
Gra	-5679
▁cheering	-5680
▁pretends	-5681
▁bravery	-5682
avi	-5683
jamas	-5684
▁heel	-5685
▁truly	-5686
▁wedding	-5687
▁rainbows	-5688
▁goals	-5689
▁zookeeper	-5690
▁sausages	-5691
▁Mira	-5692
▁resting	-5693
▁accomplish	-5694
cuse	-5695
▁threat	-5696
▁patted	-5697
▁caused	-5698
▁paintings	-5699
▁radishes	-5700
▁reaching	-5701
▁Slow	-5702
▁Tara	-5703
▁Jacob	-5704
▁Mon	-5705
Just	-5706
▁packing	-5707
▁arguing	-5708
▁Always	-5709
...	-5710
▁Ex	-5711
▁Mil	-5712
▁Pinky	-5713
▁growling	-5714
▁blooming	-5715
▁spraying	-5716
Excuse	-5717
▁Two	-5718
izzie	-5719
▁exhausted	-5720
iar	-5721
▁Mick	-5722
▁waiter	-5723
▁ge	-5724
▁struggle	-5725
bert	-5726
▁sweets	-5727
▁markers	-5728
▁kneeled	-5729
▁motion	-5730
▁pout	-5731
uick	-5732
▁sticking	-5733
▁worker	-5734
▁paddled	-5735
ences	-5736
▁sway	-5737
▁boo	-5738
▁startled	-5739
▁growl	-5740
▁traveled	-5741
▁suitc	-5742
immer	-5743
▁sled	-5744
▁snugg	-5745
▁mane	-5746
▁rescued	-5747
▁Lizzie	-5748
hello	-5749
▁written	-5750
▁cubes	-5751
▁inviting	-5752
▁spike	-5753
▁slap	-5754
▁flavor	-5755
▁expected	-5756
▁cuts	-5757
▁cent	-5758
▁dusty	-5759
▁bottles	-5760
▁reveal	-5761
▁singer	-5762
▁matching	-5763
▁bead	-5764
▁regretted	-5765
▁heav	-5766
▁guest	-5767
▁Jessica	-5768
lee	-5769
▁learns	-5770
▁princesses	-5771
▁trembling	-5772
▁bloomed	-5773
▁creating	-5774
▁fart	-5775
▁fir	-5776
▁arrive	-5777
Yeah	-5778
you	-5779
▁recorded	-5780
▁replaced	-5781
pite	-5782
▁pencils	-5783
▁marriage	-5784
aisies	-5785
▁Julia	-5786
▁observed	-5787
▁lap	-5788
▁included	-5789
njoy	-5790
▁disagree	-5791
▁chuck	-5792
▁daisies	-5793
▁prayer	-5794
▁Pipp	-5795
▁pots	-5796
▁timer	-5797
▁firm	-5798
▁pajamas	-5799
▁activities	-5800
When	-5801
▁darkness	-5802
▁workers	-5803
▁worries	-5804
▁Mo	-5805
▁roads	-5806
▁removed	-5807
▁organizing	-5808
▁ventured	-5809
▁relief	-5810
▁uses	-5811
▁wires	-5812
▁stare	-5813
▁completely	-5814
angled	-5815
▁countryside	-5816
▁fairies	-5817
▁opening	-5818
▁wasted	-5819
▁leap	-5820
▁storekeeper	-5821
▁owners	-5822
▁ranger	-5823
aty	-5824
▁reply	-5825
▁cott	-5826
▁Mel	-5827
▁belly	-5828
▁fault	-5829
▁polishing	-5830
▁partic	-5831
▁quacked	-5832
▁Fox	-5833
▁unf	-5834
▁Johnson	-5835
▁leader	-5836
iding	-5837
▁becoming	-5838
▁stern	-5839
▁Friend	-5840
ora	-5841
▁Christ	-5842
▁Slowly	-5843
▁kites	-5844
▁flames	-5845
▁Y	-5846
▁lamb	-5847
ctions	-5848
▁Nan	-5849
▁Jones	-5850
▁wasnâ	-5851
▁faced	-5852
Sometimes	-5853
▁everybody	-5854
▁poems	-5855
▁agrees	-5856
▁penguins	-5857
▁melting	-5858
▁seesaw	-5859
▁vanish	-5860
▁squealed	-5861
▁folding	-5862
▁scales	-5863
▁healed	-5864
▁crabs	-5865
▁thro	-5866
▁opinion	-5867
▁wink	-5868
▁helmets	-5869
▁Larry	-5870
▁logs	-5871
hell	-5872
▁usually	-5873
ords	-5874
▁Leave	-5875
▁throat	-5876
▁scra	-5877
▁ripe	-5878
▁crumbs	-5879
▁Follow	-5880
▁dipped	-5881
▁tractor	-5882
▁cash	-5883
lings	-5884
opes	-5885
▁lollipops	-5886
▁ast	-5887
▁teaches	-5888
▁risk	-5889
ivery	-5890
▁seems	-5891
▁comm	-5892
▁twinkle	-5893
▁groceries	-5894
▁dentist	-5895
vers	-5896
▁Bye	-5897
▁den	-5898
▁staying	-5899
▁polished	-5900
▁peeking	-5901
▁provided	-5902
aze	-5903
▁knights	-5904
asm	-5905
ids	-5906
Jack	-5907
▁valued	-5908
elle	-5909
▁snakes	-5910
▁interested	-5911
▁Put	-5912
▁blows	-5913
▁cautiously	-5914
▁scru	-5915
▁cracked	-5916
▁rubs	-5917
▁Watch	-5918
▁united	-5919
▁rings	-5920
araway	-5921
▁winked	-5922
▁faraway	-5923
▁protecting	-5924
▁freed	-5925
▁desert	-5926
▁marked	-5927
▁balanced	-5928
▁misses	-5929
▁Sorry	-5930
mas	-5931
▁Bird	-5932
▁June	-5933
▁younger	-5934
▁closes	-5935
▁Lau	-5936
▁Many	-5937
▁Doggy	-5938
▁Sophia	-5939
▁forehead	-5940
▁single	-5941
▁wrist	-5942
▁chuckled	-5943
▁wandering	-5944
▁listens	-5945
▁signed	-5946
go	-5947
boo	-5948
▁robb	-5949
▁fuzzy	-5950
▁boom	-5951
▁particular	-5952
▁pastries	-5953
▁beads	-5954
▁roses	-5955
▁however	-5956
▁actions	-5957
▁directions	-5958
œMommy	-5959
▁copy	-5960
▁Happy	-5961
▁crackers	-5962
▁naps	-5963
▁cough	-5964
rance	-5965
▁splashes	-5966
▁El	-5967
▁Bess	-5968
▁cous	-5969
▁roots	-5970
▁Prin	-5971
igi	-5972
▁yesterday	-5973
▁filling	-5974
hile	-5975
ppers	-5976
▁Without	-5977
œWhatâ	-5978
▁delivery	-5979
▁snowballs	-5980
▁baker	-5981
▁restored	-5982
▁swooped	-5983
▁conn	-5984
▁stem	-5985
▁wiggled	-5986
obby	-5987
▁gaze	-5988
▁fluttered	-5989
arling	-5990
dies	-5991
▁rolls	-5992
▁photos	-5993
abel	-5994
▁suitcase	-5995
▁Christmas	-5996
▁tipt	-5997
▁somebody	-5998
▁bumpy	-5999
▁Abbie	-6000
Bad	-6001
▁Mickey	-6002
▁slam	-6003
▁swirl	-6004
▁Everybody	-6005
▁celebration	-6006
▁itchy	-6007
bbly	-6008
Tommy	-6009
▁refle	-6010
▁pastels	-6011
▁stroll	-6012
▁pedals	-6013
oline	-6014
▁Laura	-6015
▁trips	-6016
▁Pam	-6017
▁froze	-6018
▁Gigi	-6019
▁backed	-6020
▁cashier	-6021
▁tallest	-6022
▁awake	-6023
▁twin	-6024
▁Nothing	-6025
ddled	-6026
▁cause	-6027
Then	-6028
ility	-6029
▁darker	-6030
▁determination	-6031
▁lined	-6032
▁secure	-6033
▁Jazz	-6034
▁Nick	-6035
▁remote	-6036
▁nect	-6037
▁nectar	-6038
▁speaking	-6039
ormed	-6040
anes	-6041
▁Sparky	-6042
▁Sque	-6043
▁piggy	-6044
▁complaining	-6045
▁wow	-6046
▁knees	-6047
▁bars	-6048
▁recording	-6049
▁Being	-6050
▁acting	-6051
▁pleasure	-6052
oys	-6053
▁health	-6054
▁silent	-6055
▁accomplishment	-6056
▁sneaky	-6057
▁videos	-6058
?",	-6059
▁liqu	-6060
▁ty	-6061
▁entrance	-6062
▁Exc	-6063
▁Pandy	-6064
▁coloured	-6065
▁glee	-6066
atches	-6067
▁wears	-6068
▁insp	-6069
esmer	-6070
▁delivered	-6071
boat	-6072
▁rockets	-6073
▁Enjoy	-6074
▁Ma	-6075
▁hi	-6076
▁opp	-6077
▁miles	-6078
▁cheeks	-6079
▁mesmer	-6080
▁tricked	-6081
yond	-6082
▁beyond	-6083
▁aff	-6084
▁noon	-6085
▁Stella	-6086
sequ	-6087
▁insects	-6088
▁afterwards	-6089
▁glasses	-6090
umm	-6091
▁sib	-6092
▁Mikey	-6093
▁hissed	-6094
▁Emmy	-6095
▁stays	-6096
▁consequ	-6097
▁stolen	-6098
ky	-6099
▁tickled	-6100
▁bowls	-6101
▁Buzzy	-6102
▁joking	-6103
▁Excited	-6104
▁farther	-6105
affes	-6106
▁scaring	-6107
▁burst	-6108
▁sobbed	-6109
▁colored	-6110
▁Days	-6111
Fine	-6112
▁Bee	-6113
oar	-6114
▁sense	-6115
▁tricky	-6116
▁sandcastles	-6117
▁masks	-6118
▁attack	-6119
▁Squ	-6120
▁rule	-6121
▁Jay	-6122
▁instrum	-6123
▁giraffes	-6124
▁covers	-6125
iki	-6126
▁pause	-6127
?'	-6128
▁deal	-6129
▁Milo	-6130
▁handful	-6131
arter	-6132
obbie	-6133
▁calmed	-6134
œCome	-6135
▁talented	-6136
▁Chris	-6137
▁tangled	-6138
▁smarter	-6139
ths	-6140
▁candies	-6141
▁adding	-6142
▁shirts	-6143
▁lung	-6144
▁indeed	-6145
▁scarves	-6146
▁achieved	-6147
▁choices	-6148
▁Princess	-6149
obert	-6150
▁Maya	-6151
igers	-6152
rious	-6153
▁liquid	-6154
ossible	-6155
weet	-6156
▁Els	-6157
▁behavi	-6158
▁consequences	-6159
▁leading	-6160
▁yourselves	-6161
choo	-6162
▁hesitated	-6163
▁batteries	-6164
▁impossible	-6165
▁bumps	-6166
ept	-6167
▁reads	-6168
▁badge	-6169
▁mi	-6170
▁paddle	-6171
▁Get	-6172
▁mixture	-6173
aren	-6174
iled	-6175
▁explorers	-6176
▁clowns	-6177
▁darling	-6178
▁Snugg	-6179
▁Tess	-6180
▁Olive	-6181
▁magnets	-6182
▁kicks	-6183
ouch	-6184
▁weeping	-6185
ners	-6186
▁recommended	-6187
Shh	-6188
▁experien	-6189
▁seashell	-6190
▁gracefully	-6191
▁bakery	-6192
anging	-6193
▁seeker	-6194
▁flapping	-6195
▁Martha	-6196
atul	-6197
▁salty	-6198
▁improved	-6199
brush	-6200
coat	-6201
vest	-6202
▁swept	-6203
▁firefighters	-6204
yan	-6205
▁deserve	-6206
urry	-6207
rig	-6208
Those	-6209
▁wipes	-6210
▁stroked	-6211
Whe	-6212
▁beginning	-6213
▁complained	-6214
▁mushrooms	-6215
▁Pl	-6216
▁Po	-6217
▁hider	-6218
▁Snuggles	-6219
▁cust	-6220
▁thorn	-6221
obody	-6222
▁seven	-6223
▁objects	-6224
▁knocks	-6225
itches	-6226
▁cans	-6227
▁Granny	-6228
▁teased	-6229
▁basement	-6230
▁travelled	-6231
▁steer	-6232
▁horiz	-6233
œDo	-6234
▁third	-6235
▁tigers	-6236
œYouâ	-6237
▁parties	-6238
▁Abi	-6239
▁snuck	-6240
▁hearing	-6241
▁cupcakes	-6242
▁heading	-6243
▁click	-6244
▁horizon	-6245
▁Cu	-6246
▁raincoat	-6247
tle	-6248
▁Dr	-6249
▁seconds	-6250
▁custom	-6251
▁dots	-6252
elia	-6253
no	-6254
▁siblings	-6255
▁drums	-6256
▁fever	-6257
▁marker	-6258
indr	-6259
▁Thanks	-6260
▁smiley	-6261
▁Sc	-6262
▁yells	-6263
▁fluttering	-6264
▁performance	-6265
▁artist	-6266
▁hallway	-6267
ans	-6268
▁Che	-6269
▁beam	-6270
▁lighter	-6271
▁snatched	-6272
▁Mabel	-6273
▁bedtime	-6274
▁jackets	-6275
▁ruining	-6276
step	-6277
œHi	-6278
▁buying	-6279
▁raindr	-6280
pare	-6281
iles	-6282
▁Jacky	-6283
Next	-6284
▁families	-6285
▁wee	-6286
▁gems	-6287
igning	-6288
▁Water	-6289
▁wouldnâ	-6290
▁neither	-6291
▁Finn	-6292
▁concer	-6293
▁celebrating	-6294
▁paying	-6295
rigued	-6296
▁Along	-6297
▁scrubbed	-6298
▁puppies	-6299
▁lett	-6300
▁annoy	-6301
œWow	-6302
umbling	-6303
▁dollhouse	-6304
▁among	-6305
▁creamy	-6306
▁drifted	-6307
▁Janie	-6308
▁rivers	-6309
band	-6310
▁peacefully	-6311
▁lettuce	-6312
▁treehouse	-6313
river	-6314
▁widened	-6315
▁wrapping	-6316
▁scratches	-6317
atur	-6318
▁Sim	-6319
cers	-6320
▁rumble	-6321
ades	-6322
ivity	-6323
▁repa	-6324
▁tasks	-6325
▁hides	-6326
ael	-6327
▁rusty	-6328
▁behaved	-6329
▁players	-6330
▁wins	-6331
alph	-6332
▁lun	-6333
▁wonâ	-6334
uzz	-6335
▁cuddly	-6336
▁fact	-6337
▁uns	-6338
▁lower	-6339
immering	-6340
▁rewarded	-6341
Ch	-6342
fall	-6343
ounce	-6344
▁needles	-6345
▁willing	-6346
▁arrows	-6347
▁creativity	-6348
▁Gina	-6349
▁shrinking	-6350
▁repaired	-6351
▁including	-6352
▁source	-6353
▁losing	-6354
▁ech	-6355
▁fears	-6356
▁passen	-6357
▁cor	-6358
▁temper	-6359
▁Binky	-6360
iece	-6361
▁Jackie	-6362
▁grandpare	-6363
▁choo	-6364
▁tiptoed	-6365
▁creations	-6366
itched	-6367
ongr	-6368
jo	-6369
▁Goodbye	-6370
ded	-6371
▁tapped	-6372
▁Sadie	-6373
▁def	-6374
ichael	-6375
▁grassy	-6376
▁minerals	-6377
▁rising	-6378
▁separated	-6379
▁sprinkled	-6380
▁During	-6381
▁Maddie	-6382
▁chefs	-6383
▁chop	-6384
▁imagining	-6385
▁tempt	-6386
▁gross	-6387
▁granted	-6388
▁aren	-6389
▁aud	-6390
ongratul	-6391
▁tiss	-6392
▁Michael	-6393
oey	-6394
▁Judy	-6395
Great	-6396
▁swimsuit	-6397
▁limes	-6398
cus	-6399
▁screwd	-6400
ishy	-6401
▁pans	-6402
▁pouted	-6403
▁decorating	-6404
▁stomped	-6405
▁coup	-6406
▁Nobody	-6407
▁backwards	-6408
▁damage	-6409
▁hesitant	-6410
▁earn	-6411
hog	-6412
œMy	-6413
▁grabbing	-6414
▁onions	-6415
▁peppers	-6416
▁spong	-6417
itude	-6418
▁squares	-6419
▁stung	-6420
▁printing	-6421
▁unpacked	-6422
Have	-6423
cl	-6424
▁Marie	-6425
Time	-6426
▁tramp	-6427
ntil	-6428
▁planning	-6429
ments	-6430
▁diving	-6431
▁slower	-6432
▁chip	-6433
▁heavier	-6434
▁cowb	-6435
▁beloved	-6436
▁Cra	-6437
▁growls	-6438
▁raindrops	-6439
pr	-6440
▁materials	-6441
eds	-6442
▁Simon	-6443
▁sailboat	-6444
▁wrink	-6445
▁snowmen	-6446
▁Far	-6447
▁mer	-6448
▁Squeaky	-6449
▁promises	-6450
▁recipe	-6451
▁screwdriver	-6452
cope	-6453
▁avoid	-6454
▁pointy	-6455
▁surroundings	-6456
▁rustling	-6457
Meow	-6458
▁cousin	-6459
▁Since	-6460
▁forgiven	-6461
▁Flop	-6462
▁Bluey	-6463
▁audience	-6464
▁Todd	-6465
kend	-6466
▁neighbours	-6467
▁gobbled	-6468
▁stool	-6469
▁center	-6470
▁hus	-6471
Yummy	-6472
▁weekend	-6473
▁slices	-6474
▁blocking	-6475
Today	-6476
ueen	-6477
▁touc	-6478
▁Earth	-6479
▁wiping	-6480
▁temperature	-6481
▁windy	-6482
▁trampoline	-6483
▁arr	-6484
▁refu	-6485
▁helpers	-6486
▁discussed	-6487
yes	-6488
▁wobbled	-6489
▁rip	-6490
sty	-6491
▁hedgehog	-6492
ably	-6493
▁couple	-6494
itted	-6495
▁designed	-6496
▁Lia	-6497
Oops	-6498
▁feast	-6499
▁noses	-6500
▁dreamt	-6501
▁corners	-6502
unched	-6503
Lila	-6504
▁ornaments	-6505
▁pecked	-6506
▁slammed	-6507
int	-6508
▁afford	-6509
child	-6510
▁swans	-6511
Ew	-6512
▁sports	-6513
iley	-6514
▁hitting	-6515
▁streets	-6516
▁tissue	-6517
▁age	-6518
▁wag	-6519
▁aside	-6520
▁dads	-6521
▁requested	-6522
arrow	-6523
▁meals	-6524
▁ache	-6525
ccoon	-6526
▁Back	-6527
▁forks	-6528
▁raccoon	-6529
▁stain	-6530
▁curiously	-6531
▁reflection	-6532
▁sponge	-6533
▁warnings	-6534
▁duckling	-6535
cky	-6536
▁sparks	-6537
Le	-6538
▁sunflowers	-6539
▁plans	-6540
▁bows	-6541
▁prett	-6542
eal	-6543
▁snowfl	-6544
▁shaped	-6545
▁tails	-6546
▁leaning	-6547
▁vanilla	-6548
▁familiar	-6549
▁det	-6550
ido	-6551
▁dances	-6552
▁gri	-6553
ition	-6554
▁breathed	-6555
▁coloring	-6556
▁Those	-6557
▁adult	-6558
▁remembering	-6559
▁Although	-6560
▁Hoot	-6561
▁spreading	-6562
▁dollars	-6563
▁greeted	-6564
▁Ash	-6565
▁Amelia	-6566
▁sale	-6567
▁shops	-6568
▁intrigued	-6569
osen	-6570
▁gasp	-6571
▁chosen	-6572
▁twice	-6573
▁praying	-6574
▁grandchild	-6575
aker	-6576
▁thrown	-6577
▁prettier	-6578
▁forgets	-6579
▁astron	-6580
▁screws	-6581
--	-6582
▁tunnels	-6583
▁hour	-6584
▁potion	-6585
arac	-6586
▁moo	-6587
Grandma	-6588
▁enthusi	-6589
▁astronaut	-6590
▁touches	-6591
▁reason	-6592
▁enthusiasm	-6593
▁Our	-6594
otten	-6595
▁swords	-6596
▁husband	-6597
▁sailors	-6598
▁daring	-6599
▁gardener	-6600
▁Fu	-6601
ertain	-6602
▁spoonful	-6603
▁superheroes	-6604
endy	-6605
▁corre	-6606
▁wishing	-6607
▁hops	-6608
▁zipping	-6609
▁skunk	-6610
▁woof	-6611
▁least	-6612
▁flight	-6613
▁Meg	-6614
▁Friends	-6615
▁dod	-6616
▁reass	-6617
▁spikes	-6618
▁magician	-6619
▁forgetting	-6620
▁grandparents	-6621
▁changing	-6622
shions	-6623
▁todd	-6624
▁scamp	-6625
arshm	-6626
▁Davey	-6627
▁Fido	-6628
arshmallow	-6629
▁bodies	-6630
▁rotten	-6631
▁flavors	-6632
▁borrowed	-6633
▁pens	-6634
▁Momma	-6635
▁counts	-6636
▁hopeful	-6637
▁encourag	-6638
ently	-6639
fly	-6640
Woof	-6641
▁neare	-6642
aracter	-6643
▁guests	-6644
▁character	-6645
▁Star	-6646
▁mesmerized	-6647
ounced	-6648
▁sending	-6649
▁muscle	-6650
▁Sun	-6651
▁Li	-6652
▁snuggle	-6653
▁heroes	-6654
stick	-6655
▁neatly	-6656
▁buzzed	-6657
▁seaw	-6658
▁grows	-6659
▁wraps	-6660
Whee	-6661
▁steady	-6662
▁Wendy	-6663
▁feeding	-6664
▁Ali	-6665
wk	-6666
irrel	-6667
oni	-6668
▁nibb	-6669
▁poss	-6670
▁Listen	-6671
▁handsome	-6672
▁cond	-6673
Our	-6674
llen	-6675
▁nine	-6676
▁delivering	-6677
▁marshmallow	-6678
▁politely	-6679
▁oh	-6680
▁dived	-6681
▁suffering	-6682
▁alien	-6683
antha	-6684
▁onward	-6685
bba	-6686
▁mints	-6687
▁Frog	-6688
▁napkins	-6689
▁zebras	-6690
▁sneezing	-6691
years	-6692
▁plucked	-6693
Boo	-6694
the	-6695
▁warmer	-6696
▁honked	-6697
▁crashing	-6698
▁baths	-6699
▁defe	-6700
▁plain	-6701
▁Sof	-6702
▁thatâ	-6703
▁Samantha	-6704
▁poster	-6705
▁matters	-6706
meal	-6707
ection	-6708
▁lifts	-6709
▁Farmer	-6710
▁embarrass	-6711
▁refreshing	-6712
▁students	-6713
▁seaweed	-6714
▁Birthday	-6715
▁lungs	-6716
▁Holly	-6717
▁Maddy	-6718
▁unsure	-6719
▁increased	-6720
œMom	-6721
▁scen	-6722
▁stands	-6723
allowed	-6724
▁crew	-6725
▁oatmeal	-6726
▁swallowed	-6727
Some	-6728
▁toddler	-6729
▁proper	-6730
▁express	-6731
▁joining	-6732
▁Des	-6733
▁whispers	-6734
▁preparing	-6735
▁dip	-6736
œBut	-6737
▁thud	-6738
▁glued	-6739
▁focu	-6740
▁Frosty	-6741
aster	-6742
▁Bessie	-6743
▁amount	-6744
▁respond	-6745
▁Baa	-6746
▁ropes	-6747
▁toaster	-6748
▁watering	-6749
▁performed	-6750
▁leads	-6751
▁die	-6752
▁trembled	-6753
aven	-6754
▁starfish	-6755
▁dancers	-6756
▁Thatâ	-6757
▁wobbly	-6758
▁presses	-6759
▁bully	-6760
▁triangles	-6761
▁lessons	-6762
while	-6763
▁hawk	-6764
▁Patch	-6765
▁confl	-6766
▁biting	-6767
▁puff	-6768
▁postman	-6769
▁cushions	-6770
▁resisted	-6771
œWell	-6772
▁merry	-6773
▁flas	-6774
▁pops	-6775
▁cau	-6776
▁scraped	-6777
▁geese	-6778
▁Squirrel	-6779
▁talks	-6780
▁focused	-6781
▁freedom	-6782
▁Love	-6783
▁rushing	-6784
▁adults	-6785
▁softer	-6786
▁waddled	-6787
▁panicked	-6788
vant	-6789
▁sniffs	-6790
▁slips	-6791
▁trot	-6792
▁Bubba	-6793
iona	-6794
▁firmly	-6795
▁puppet	-6796
▁necklaces	-6797
ados	-6798
▁Mouse	-6799
▁dropping	-6800
▁encouraging	-6801
▁joyful	-6802
▁drawers	-6803
▁firefly	-6804
▁wrigg	-6805
▁wiggle	-6806
▁frowning	-6807
onna	-6808
▁Megan	-6809
œWhere	-6810
▁Mina	-6811
▁tested	-6812
▁tables	-6813
▁Mean	-6814
▁nervously	-6815
▁waterfall	-6816
Lucy	-6817
▁rout	-6818
▁worn	-6819
Bun	-6820
▁faded	-6821
▁Only	-6822
▁blast	-6823
▁lifting	-6824
▁scampered	-6825
▁ev	-6826
ippy	-6827
▁humans	-6828
▁explo	-6829
bird	-6830
▁drivers	-6831
▁appreciation	-6832
rey	-6833
lets	-6834
▁spat	-6835
▁Honey	-6836
▁Ang	-6837
▁thoughts	-6838
cake	-6839
▁drawn	-6840
▁firefighter	-6841
▁Fe	-6842
▁pours	-6843
▁robber	-6844
▁twinkled	-6845
▁quarreling	-6846
▁Stay	-6847
▁Tuna	-6848
▁stacked	-6849
▁throughout	-6850
▁Fuzzy	-6851
▁leapt	-6852
retty	-6853
▁squeak	-6854
▁respected	-6855
▁pigeons	-6856
▁dresser	-6857
▁occ	-6858
▁Fiona	-6859
▁Eva	-6860
▁Flopsy	-6861
▁pennies	-6862
▁fits	-6863
TMd	-6864
rrr	-6865
▁Ph	-6866
▁scient	-6867
▁Sofia	-6868
▁Freddie	-6869
Fo	-6870
▁master	-6871
▁Meanwhile	-6872
▁scientist	-6873
but	-6874
▁polar	-6875
roken	-6876
▁months	-6877
▁coc	-6878
▁elf	-6879
▁overcome	-6880
▁bravest	-6881
▁avocados	-6882
ushed	-6883
▁nur	-6884
▁strongest	-6885
▁notes	-6886
▁playtime	-6887
▁san	-6888
▁gonna	-6889
ears	-6890
▁Take	-6891
▁wept	-6892
Listen	-6893
oke	-6894
fire	-6895
▁manag	-6896
▁convers	-6897
▁cosy	-6898
▁scored	-6899
▁munch	-6900
▁Im	-6901
▁Spl	-6902
▁certain	-6903
bage	-6904
▁echoed	-6905
▁wakes	-6906
▁nood	-6907
▁spins	-6908
▁colder	-6909
▁garbage	-6910
eezes	-6911
▁peck	-6912
▁performing	-6913
▁Owl	-6914
▁designs	-6915
▁sweetest	-6916
▁prove	-6917
▁explorer	-6918
▁playroom	-6919
▁sank	-6920
▁tricycle	-6921
▁flown	-6922
▁pumpkins	-6923
▁prob	-6924
Mine	-6925
▁Jonny	-6926
▁Jojo	-6927
ca	-6928
▁probably	-6929
▁forgiving	-6930
iment	-6931
▁gest	-6932
▁tossed	-6933
▁behaving	-6934
▁marshmallows	-6935
hew	-6936
rying	-6937
▁robots	-6938
▁guide	-6939
▁blinking	-6940
please	-6941
cher	-6942
bbling	-6943
œIf	-6944
▁squeezing	-6945
broken	-6946
▁shown	-6947
ocky	-6948
œOkay	-6949
▁cobwebs	-6950
▁squishy	-6951
▁causing	-6952
▁Fire	-6953
..."	-6954
undred	-6955
▁haird	-6956
▁Despite	-6957
▁congratul	-6958
▁bells	-6959
▁passengers	-6960
▁spices	-6961
Like	-6962
urprise	-6963
▁craft	-6964
▁tighter	-6965
▁Louise	-6966
▁mate	-6967
▁angels	-6968
▁yielded	-6969
?!"	-6970
▁Tam	-6971
▁ties	-6972
fus	-6973
ading	-6974
▁healing	-6975
▁Mae	-6976
▁Dani	-6977
▁pound	-6978
▁reversed	-6979
▁sadd	-6980
▁Yesterday	-6981
▁Curious	-6982
ilda	-6983
▁napping	-6984
▁giggles	-6985
▁aimed	-6986
upt	-6987
▁nearly	-6988
▁offic	-6989
▁distract	-6990
▁pays	-6991
▁sewing	-6992
alloween	-6993
▁instruments	-6994
▁Maisy	-6995
▁unw	-6996
▁conflict	-6997
▁Still	-6998
▁Ally	-6999
▁kittens	-7000
▁wider	-7001
▁Because	-7002
▁nuzz	-7003
▁reun	-7004
▁til	-7005
found	-7006
mates	-7007
▁doorway	-7008
▁yum	-7009
aying	-7010
▁shoo	-7011
▁clues	-7012
▁paintbrush	-7013
Follow	-7014
▁Birdy	-7015
▁inj	-7016
▁brushing	-7017
▁appreciated	-7018
▁coug	-7019
▁cottage	-7020
▁grandd	-7021
▁Halloween	-7022
▁ease	-7023
▁Well	-7024
Watch	-7025
▁bru	-7026
Alright	-7027
▁action	-7028
▁paths	-7029
▁blocked	-7030
▁loading	-7031
▁passports	-7032
▁heartbroken	-7033
▁ais	-7034
Sue	-7035
▁bits	-7036
onies	-7037
▁merma	-7038
▁pins	-7039
▁belts	-7040
▁laying	-7041
▁slipping	-7042
▁mailed	-7043
antastic	-7044
idey	-7045
▁Pen	-7046
▁sweep	-7047
▁repeating	-7048
▁figures	-7049
▁Becky	-7050
asty	-7051
▁Start	-7052
▁results	-7053
▁anger	-7054
▁soaking	-7055
▁twisty	-7056
▁evil	-7057
▁twisting	-7058
▁accomplished	-7059
▁within	-7060
ino	-7061
isc	-7062
▁Pippa	-7063
▁crossing	-7064
▁connected	-7065
▁puzzled	-7066
dding	-7067
▁Hope	-7068
▁und	-7069
▁Mother	-7070
▁Pippin	-7071
▁surfing	-7072
▁suffered	-7073
▁damaged	-7074
▁tuck	-7075
▁sweat	-7076
€,	-7077
▁breathing	-7078
▁responsib	-7079
▁oysters	-7080
▁sever	-7081
▁buses	-7082
▁shrug	-7083
▁licking	-7084
▁several	-7085
▁shovels	-7086
▁behavior	-7087
▁hundred	-7088
▁roars	-7089
▁toward	-7090
▁despite	-7091
▁noodles	-7092
▁risks	-7093
▁finishing	-7094
▁hairdress	-7095
lves	-7096
ighting	-7097
œPlease	-7098
▁Ga	-7099
▁lending	-7100
▁streamers	-7101
▁tying	-7102
▁Spidey	-7103
▁humming	-7104
▁bracelets	-7105
▁supported	-7106
▁surrendered	-7107
▁defin	-7108
▁awoke	-7109
▁fleas	-7110
▁encount	-7111
evin	-7112
▁Time	-7113
▁rainy	-7114
byes	-7115
▁quieter	-7116
▁shady	-7117
▁Eliz	-7118
▁cleaner	-7119
▁Auntie	-7120
▁luckily	-7121
▁Green	-7122
▁goodbyes	-7123
▁whose	-7124
▁ignoring	-7125
erk	-7126
▁rather	-7127
▁fantastic	-7128
œOf	-7129
eling	-7130
unity	-7131
▁Frankie	-7132
▁stitches	-7133
▁cuddles	-7134
isions	-7135
▁tablet	-7136
▁edges	-7137
▁frowns	-7138
▁slither	-7139
Take	-7140
▁Janey	-7141
▁ponies	-7142
▁cloudy	-7143
ecca	-7144
▁final	-7145
▁handing	-7146
▁sped	-7147
▁hairdresser	-7148
▁Flo	-7149
▁Wil	-7150
ening	-7151
Surprise	-7152
▁coral	-7153
▁focus	-7154
▁thorns	-7155
▁drown	-7156
▁elbow	-7157
▁snowflakes	-7158
onnie	-7159
▁Wally	-7160
▁definitely	-7161
▁rains	-7162
▁cotton	-7163
▁Pretty	-7164
▁battle	-7165
ppies	-7166
▁surv	-7167
athy	-7168
▁Luc	-7169
▁kings	-7170
▁gesture	-7171
crow	-7172
▁smallest	-7173
▁wisely	-7174
▁sy	-7175
▁Any	-7176
▁reminding	-7177
▁driveway	-7178
œNow	-7179
▁correctly	-7180
whe	-7181
▁newfound	-7182
▁sou	-7183
▁decisions	-7184
▁sharks	-7185
▁prick	-7186
▁peeled	-7187
▁chopped	-7188
▁vines	-7189
▁student	-7190
▁squeaked	-7191
▁weeds	-7192
▁fishes	-7193
▁Froggy	-7194
▁symbols	-7195
▁snort	-7196
▁warri	-7197
▁grandson	-7198
▁simply	-7199
cent	-7200
▁nasty	-7201
▁wobble	-7202
▁exercises	-7203
rie	-7204
▁granddaughter	-7205
▁bandages	-7206
▁Ar	-7207
onse	-7208
▁response	-7209
▁stopping	-7210
Bob	-7211
▁Pepper	-7212
▁except	-7213
▁inspired	-7214
▁Daniel	-7215
▁ni	-7216
steps	-7217
▁occas	-7218
▁afar	-7219
▁banged	-7220
▁travels	-7221
▁flipped	-7222
▁darl	-7223
▁darlings	-7224
▁lent	-7225
▁tipped	-7226
▁disturbing	-7227
elie	-7228
oger	-7229
œHey	-7230
▁tar	-7231
▁fills	-7232
▁Ju	-7233
worm	-7234
▁masterp	-7235
▁pedaled	-7236
▁Jax	-7237
father	-7238
▁spits	-7239
▁travelling	-7240
aa	-7241
▁birdhouse	-7242
▁footsteps	-7243
▁punishment	-7244
line	-7245
▁purr	-7246
▁scarecrow	-7247
sol	-7248
▁chocolates	-7249
▁Joan	-7250
▁Stan	-7251
▁convin	-7252
▁ships	-7253
▁presented	-7254
▁Ana	-7255
▁Welcome	-7256
▁congratulated	-7257
▁windowsill	-7258
▁surfboard	-7259
▁antic	-7260
▁address	-7261
▁planting	-7262
▁apologised	-7263
▁Phil	-7264
mered	-7265
ddie	-7266
▁forests	-7267
▁Excitedly	-7268
ms	-7269
▁arranged	-7270
▁Dory	-7271
▁Bounce	-7272
▁trotted	-7273
▁believing	-7274
Cl	-7275
▁Feeling	-7276
▁Elle	-7277
▁reunited	-7278
▁reassured	-7279
▁reapp	-7280
▁clerk	-7281
▁Gus	-7282
▁nodding	-7283
▁business	-7284
▁cheers	-7285
▁campfire	-7286
▁backpacks	-7287
▁magnif	-7288
ooky	-7289
▁lies	-7290
▁suits	-7291
▁encouragement	-7292
▁Bow	-7293
perate	-7294
▁marve	-7295
▁sails	-7296
▁terrified	-7297
▁knots	-7298
▁Pu	-7299
▁covering	-7300
issa	-7301
▁officers	-7302
▁poppies	-7303
▁Splash	-7304
▁images	-7305
▁Patty	-7306
utter	-7307
▁grip	-7308
▁activity	-7309
manda	-7310
▁mood	-7311
▁expert	-7312
▁smelling	-7313
otte	-7314
▁yel	-7315
▁target	-7316
▁Other	-7317
▁dep	-7318
▁chilly	-7319
▁spills	-7320
▁surprising	-7321
inkle	-7322
▁yelped	-7323
▁changes	-7324
▁delayed	-7325
▁wrinkled	-7326
Beep	-7327
▁concert	-7328
▁testing	-7329
▁Nancy	-7330
▁tasting	-7331
▁masterpiece	-7332
▁Dog	-7333
▁Amanda	-7334
▁Fighting	-7335
▁speeding	-7336
▁calmly	-7337
ider	-7338
▁Duck	-7339
uackers	-7340
▁Bri	-7341
▁Okay	-7342
ody	-7343
▁Startled	-7344
▁sniffing	-7345
▁gears	-7346
▁comforting	-7347
ats	-7348
▁braver	-7349
▁Snowman	-7350
▁suggestion	-7351
acle	-7352
▁Jean	-7353
▁pleaded	-7354
▁Elly	-7355
▁labels	-7356
▁discussing	-7357
we	-7358
acles	-7359
▁mermaid	-7360
▁displayed	-7361
▁Try	-7362
▁magazines	-7363
▁spies	-7364
▁mischie	-7365
▁Charlotte	-7366
▁stumble	-7367
▁worrying	-7368
▁bothering	-7369
▁aware	-7370
▁mischievous	-7371
asha	-7372
emma	-7373
flies	-7374
▁height	-7375
▁admiration	-7376
▁understands	-7377
▁unfortunately	-7378
▁artwork	-7379
▁efforts	-7380
▁belongings	-7381
▁puck	-7382
▁foxes	-7383
▁although	-7384
▁crowns	-7385
▁burying	-7386
▁hoo	-7387
pen	-7388
ails	-7389
▁jars	-7390
▁toolbox	-7391
screen	-7392
Little	-7393
▁seller	-7394
▁sav	-7395
▁buddy	-7396
▁refuse	-7397
rier	-7398
▁experienced	-7399
ighing	-7400
▁bless	-7401
▁Helen	-7402
▁dragonfly	-7403
▁Spe	-7404
inted	-7405
▁decl	-7406
▁Annab	-7407
▁que	-7408
▁bitten	-7409
what	-7410
▁Outside	-7411
▁baskets	-7412
▁vehicles	-7413
wise	-7414
ibbit	-7415
▁Ty	-7416
vroom	-7417
▁disc	-7418
aturday	-7419
▁packages	-7420
▁annoyed	-7421
▁tumbled	-7422
▁Saturday	-7423
▁seashells	-7424
▁solving	-7425
ugging	-7426
▁dump	-7427
▁fires	-7428
ipes	-7429
mbers	-7430
▁peas	-7431
▁Eddie	-7432
▁pandas	-7433
▁members	-7434
œA	-7435
œThe	-7436
▁warmly	-7437
▁momma	-7438
▁posit	-7439
▁rotting	-7440
▁treated	-7441
▁troubles	-7442
▁sunscreen	-7443
▁squaw	-7444
bell	-7445
▁wealth	-7446
▁material	-7447
▁nibbled	-7448
aint	-7449
▁Elsa	-7450
▁conqu	-7451
▁Snowball	-7452
▁scent	-7453
▁Fort	-7454
▁prayers	-7455
œSure	-7456
▁untied	-7457
▁stomp	-7458
▁conversation	-7459
▁Lina	-7460
▁Eric	-7461
▁gazing	-7462
▁diso	-7463
▁argum	-7464
▁coach	-7465
▁parted	-7466
▁insisting	-7467
▁loops	-7468
▁environ	-7469
▁Tammy	-7470
ongo	-7471
▁sill	-7472
▁sewed	-7473
▁teachers	-7474
▁collap	-7475
▁environment	-7476
▁joins	-7477
▁races	-7478
▁stored	-7479
▁whispering	-7480
▁orders	-7481
Dear	-7482
owing	-7483
▁scurrying	-7484
▁encountered	-7485
▁bea	-7486
▁tilted	-7487
ppa	-7488
▁joked	-7489
▁exch	-7490
attered	-7491
▁Fortunately	-7492
▁Terry	-7493
▁spooky	-7494
▁Sasha	-7495
▁purpose	-7496
▁tweet	-7497
▁permitted	-7498
▁loses	-7499
airy	-7500
▁Ava	-7501
order	-7502
▁hoops	-7503
▁sheets	-7504
▁cowboy	-7505
▁toss	-7506
▁type	-7507
▁genie	-7508
▁maker	-7509
▁pupils	-7510
▁diamonds	-7511
▁scram	-7512
iscuit	-7513
▁trans	-7514
▁aim	-7515
Goodnight	-7516
oc	-7517
▁anticip	-7518
Get	-7519
▁Sw	-7520
▁ends	-7521
▁gap	-7522
igger	-7523
▁queens	-7524
▁beaming	-7525
▁turtles	-7526
▁glittering	-7527
▁tubes	-7528
▁nearest	-7529
▁donkey	-7530
▁servant	-7531
▁opport	-7532
▁spells	-7533
▁cleared	-7534
œSee	-7535
▁visitors	-7536
illiam	-7537
▁untie	-7538
▁stroke	-7539
▁tapping	-7540
▁customers	-7541
▁rin	-7542
▁Stitch	-7543
▁Jason	-7544
▁Ly	-7545
immy	-7546
▁wasting	-7547
▁Grand	-7548
▁films	-7549
▁nurses	-7550
▁ger	-7551
▁swo	-7552
▁fins	-7553
▁wounds	-7554
▁Izzy	-7555
▁Min	-7556
▁oppos	-7557
▁swollen	-7558
▁convinced	-7559
▁Woo	-7560
▁Poor	-7561
▁Seeing	-7562
▁Hold	-7563
▁goats	-7564
▁shall	-7565
▁hunters	-7566
usty	-7567
▁Speedy	-7568
▁examining	-7569
▁priz	-7570
▁Bobbie	-7571
▁slowed	-7572
▁sweaty	-7573
▁declared	-7574
▁dressing	-7575
Every	-7576
▁characters	-7577
orter	-7578
▁dot	-7579
▁William	-7580
elope	-7581
▁transf	-7582
▁Nana	-7583
▁Elsie	-7584
ilities	-7585
▁failed	-7586
▁opposite	-7587
▁goodies	-7588
▁Sk	-7589
▁forgiveness	-7590
▁Finny	-7591
▁Bongo	-7592
▁tidied	-7593
▁scratching	-7594
▁warrior	-7595
▁seagulls	-7596
▁youngest	-7597
Leave	-7598
▁guessing	-7599
mies	-7600
▁lipstick	-7601
acy	-7602
▁peep	-7603
▁grandfather	-7604
▁Oliv	-7605
▁inchworm	-7606
▁sternly	-7607
Wh	-7608
▁Lion	-7609
▁thanking	-7610
rest	-7611
▁beeped	-7612
empt	-7613
▁meowing	-7614
▁scrambled	-7615
▁form	-7616
▁dripping	-7617
▁tires	-7618
▁nibble	-7619
▁attempt	-7620
▁rescuing	-7621
▁responsibility	-7622
▁La	-7623
▁active	-7624
▁questioned	-7625
▁Youâ	-7626
▁grat	-7627
▁picnics	-7628
ouqu	-7629
▁bouqu	-7630
▁anticipation	-7631
▁aisle	-7632
▁blond	-7633
▁shin	-7634
▁floors	-7635
▁responded	-7636
▁matey	-7637
rily	-7638
▁Spring	-7639
▁Taking	-7640
▁smashed	-7641
▁obeyed	-7642
▁ting	-7643
▁stall	-7644
▁knocking	-7645
▁discoveries	-7646
▁force	-7647
▁attacked	-7648
▁vibr	-7649
▁explains	-7650
▁inter	-7651
▁emerged	-7652
▁jud	-7653
▁charge	-7654
▁gratitude	-7655
▁decoration	-7656
▁classmates	-7657
▁rely	-7658
▁snug	-7659
▁Peppa	-7660
▁manners	-7661
▁aeroplanes	-7662
▁rays	-7663
▁visits	-7664
▁sens	-7665
cie	-7666
Stay	-7667
munk	-7668
œWho	-7669
▁zooms	-7670
▁vegg	-7671
▁girlâ	-7672
▁sprout	-7673
▁survive	-7674
▁Tessa	-7675
▁signing	-7676
▁Amber	-7677
▁instantly	-7678
▁Brian	-7679
▁breaths	-7680
▁soot	-7681
ippers	-7682
▁twists	-7683
▁beeh	-7684
▁Fel	-7685
▁spy	-7686
▁self	-7687
Always	-7688
▁wiggly	-7689
act	-7690
▁Win	-7691
▁bond	-7692
ebecca	-7693
yl	-7694
▁Gary	-7695
▁hen	-7696
▁Olivia	-7697
▁rumbling	-7698
Fl	-7699
▁Beh	-7700
▁loc	-7701
▁unwra	-7702
▁buckled	-7703
anda	-7704
▁Ant	-7705
▁shrunk	-7706
▁brightest	-7707
▁flaps	-7708
▁argument	-7709
▁seals	-7710
▁manager	-7711
▁munched	-7712
▁Penelope	-7713
sm	-7714
▁Chick	-7715
▁purrs	-7716
▁earned	-7717
roll	-7718
▁ramp	-7719
▁Crabby	-7720
▁increasing	-7721
▁Matilda	-7722
▁chatter	-7723
▁swaying	-7724
▁chipmunk	-7725
ooking	-7726
▁doorbell	-7727
ana	-7728
idence	-7729
iens	-7730
▁shimmering	-7731
So	-7732
udged	-7733
▁lowered	-7734
▁aliens	-7735
ittered	-7736
▁disobey	-7737
All	-7738
▁movements	-7739
athan	-7740
gain	-7741
ching	-7742
▁bathing	-7743
▁cracks	-7744
▁prevented	-7745
œGood	-7746
▁honking	-7747
▁whoever	-7748
lied	-7749
▁winding	-7750
▁announced	-7751
ummies	-7752
romise	-7753
ssss	-7754
▁amu	-7755
▁rowed	-7756
storm	-7757
▁offering	-7758
its	-7759
▁prickly	-7760
▁switched	-7761
▁mosquitoes	-7762
TMve	-7763
inger	-7764
▁cons	-7765
▁swap	-7766
▁Sparkle	-7767
▁poses	-7768
▁nuzzled	-7769
bee	-7770
▁beaver	-7771
aby	-7772
▁Shelly	-7773
▁taped	-7774
▁Mam	-7775
oscope	-7776
▁swayed	-7777
lph	-7778
aret	-7779
▁minds	-7780
▁flips	-7781
▁Ashley	-7782
▁crawls	-7783
▁Step	-7784
▁dodged	-7785
▁jobs	-7786
▁steth	-7787
flowers	-7788
▁cares	-7789
▁Behind	-7790
▁whistles	-7791
▁lapt	-7792
▁badger	-7793
▁designing	-7794
▁destroying	-7795
▁glimmering	-7796
uel	-7797
▁rats	-7798
▁Angel	-7799
Letâ	-7800
▁exploded	-7801
▁smelt	-7802
▁Ever	-7803
▁Sweet	-7804
▁scolds	-7805
▁Sir	-7806
▁Bert	-7807
▁shines	-7808
▁observing	-7809
Bang	-7810
uickly	-7811
▁million	-7812
▁beautifully	-7813
▁customer	-7814
▁generosity	-7815
▁Jilly	-7816
▁crops	-7817
rink	-7818
ddles	-7819
▁knives	-7820
▁beating	-7821
▁stamped	-7822
boards	-7823
▁snaps	-7824
▁scooters	-7825
▁checkout	-7826
▁dangers	-7827
▁Bad	-7828
angle	-7829
▁hike	-7830
▁deed	-7831
▁germs	-7832
▁robbers	-7833
▁languages	-7834
da	-7835
▁recorder	-7836
▁groan	-7837
▁paddling	-7838
▁Eliza	-7839
▁honesty	-7840
▁tummies	-7841
▁cocoon	-7842
▁routine	-7843
▁closing	-7844
lt	-7845
▁Trust	-7846
▁drowned	-7847
▁Bonnie	-7848
▁stethoscope	-7849
▁Cle	-7850
▁plug	-7851
▁haven	-7852
▁clicked	-7853
▁supplied	-7854
▁Never	-7855
▁expecting	-7856
▁Gracie	-7857
▁Cara	-7858
▁laptop	-7859
▁veggies	-7860
Mr	-7861
udo	-7862
▁Pau	-7863
▁astronauts	-7864
abra	-7865
udolph	-7866
▁explor	-7867
▁Se	-7868
▁beehive	-7869
ulp	-7870
▁disappoint	-7871
▁court	-7872
▁statues	-7873
▁tidying	-7874
▁dears	-7875
▁Gabby	-7876
▁Peggy	-7877
ita	-7878
▁conduct	-7879
otch	-7880
œMaybe	-7881
▁sculp	-7882
oosh	-7883
▁particularly	-7884
▁bouquet	-7885
▁ill	-7886
▁adds	-7887
▁unpacking	-7888
lest	-7889
▁chatted	-7890
Any	-7891
arable	-7892
▁novels	-7893
▁steering	-7894
lor	-7895
▁tin	-7896
▁cupcake	-7897
▁Nora	-7898
▁reminds	-7899
pit	-7900
▁Jenn	-7901
▁ghosts	-7902
▁caw	-7903
▁Ho	-7904
▁Isn	-7905
▁hardest	-7906
▁Donâ	-7907
▁floats	-7908
▁shorts	-7909
▁applause	-7910
▁conductor	-7911
Arrr	-7912
water	-7913
▁wiser	-7914
▁healthier	-7915
▁strum	-7916
▁Belle	-7917
▁awful	-7918
▁heaven	-7919
▁Cr	-7920
▁stretches	-7921
Nice	-7922
▁scri	-7923
▁plugged	-7924
▁elect	-7925
▁dollar	-7926
rup	-7927
▁squished	-7928
omb	-7929
▁Tyler	-7930
pril	-7931
▁traded	-7932
An	-7933
osa	-7934
idents	-7935
▁Carla	-7936
▁wildflowers	-7937
▁Ele	-7938
▁whatâ	-7939
Someone	-7940
▁combed	-7941
▁fascinating	-7942
▁overhead	-7943
▁bothered	-7944
▁carries	-7945
▁syrup	-7946
▁opinions	-7947
Too	-7948
anced	-7949
▁faint	-7950
▁nests	-7951
▁flashing	-7952
▁beast	-7953
▁sprays	-7954
idnight	-7955
▁container	-7956
▁providing	-7957
ative	-7958
▁ouch	-7959
▁umbrellas	-7960
▁experiences	-7961
rough	-7962
▁gall	-7963
▁swallow	-7964
▁returning	-7965
rench	-7966
▁killed	-7967
▁shorter	-7968
▁sculpture	-7969
œOk	-7970
elieve	-7971
▁Andrew	-7972
earing	-7973
▁Paula	-7974
▁examp	-7975
▁locks	-7976
▁bounces	-7977
▁tearing	-7978
five	-7979
▁sets	-7980
▁April	-7981
▁teles	-7982
ouraged	-7983
▁checks	-7984
▁flashed	-7985
▁Immediately	-7986
œBe	-7987
▁Foxy	-7988
▁hotter	-7989
▁defeated	-7990
▁Har	-7991
▁weapons	-7992
chy	-7993
ordinary	-7994
▁Another	-7995
▁burnt	-7996
▁papa	-7997
▁tests	-7998
▁glided	-7999
▁Flora	-8000
▁nights	-8001
▁faith	-8002
orking	-8003
▁scrub	-8004
▁inches	-8005
▁grumbled	-8006
▁sprinkle	-8007
bu	-8008
centr	-8009
▁Butter	-8010
ccidents	-8011
▁farmers	-8012
▁hu	-8013
▁telescope	-8014
ators	-8015
▁sadder	-8016
▁conv	-8017
▁cubs	-8018
eople	-8019
iving	-8020
▁serving	-8021
▁concentr	-8022
▁Mila	-8023
▁Wigg	-8024
▁hiss	-8025
▁electric	-8026
▁icing	-8027
▁confidence	-8028
▁Melissa	-8029
▁Annabelle	-8030
▁applauding	-8031
▁Liam	-8032
▁trusting	-8033
ooks	-8034
▁gardens	-8035
▁convince	-8036
lo	-8037
lers	-8038
▁Bang	-8039
▁Prince	-8040
ession	-8041
▁Fairy	-8042
▁twenty	-8043
▁awhile	-8044
ufus	-8045
ended	-8046
▁necks	-8047
▁visitor	-8048
Choo	-8049
▁Say	-8050
▁cheated	-8051
▁crystals	-8052
▁burns	-8053
▁petting	-8054
▁bluebird	-8055
Molly	-8056
▁Liza	-8057
▁dryer	-8058
▁teams	-8059
▁Dino	-8060
parable	-8061
▁raising	-8062
▁blown	-8063
▁sirens	-8064
▁Barry	-8065
▁extraordinary	-8066
▁collapsed	-8067
▁munching	-8068
▁inseparable	-8069
▁goo	-8070
▁Pick	-8071
▁Wooly	-8072
▁types	-8073
▁forgives	-8074
vy	-8075
▁example	-8076
▁checking	-8077
▁member	-8078
ances	-8079
Billy	-8080
▁born	-8081
▁soapy	-8082
▁instrument	-8083
Put	-8084
▁natur	-8085
▁mac	-8086
▁imaginary	-8087
▁behaviour	-8088
▁De	-8089
▁playd	-8090
▁odd	-8091
▁biscuit	-8092
▁grassho	-8093
bl	-8094
▁meows	-8095
▁sprang	-8096
▁singers	-8097
val	-8098
▁prizes	-8099
His	-8100
▁Mona	-8101
▁flip	-8102
▁waded	-8103
▁upside	-8104
▁momâ	-8105
shaped	-8106
▁waters	-8107
▁bicycles	-8108
▁compan	-8109
▁opportunity	-8110
▁unlo	-8111
▁Lenny	-8112
▁kit	-8113
▁salon	-8114
▁exploration	-8115
▁Sparkles	-8116
▁distracted	-8117
▁expression	-8118
▁peeped	-8119
▁conquered	-8120
▁Magic	-8121
▁flick	-8122
▁Smo	-8123
▁dock	-8124
▁traveling	-8125
On	-8126
▁sandy	-8127
adually	-8128
Boys	-8129
▁Candy	-8130
▁bride	-8131
▁sweaters	-8132
▁lim	-8133
▁bomb	-8134
adabra	-8135
▁wriggled	-8136
▁hood	-8137
▁Twinkle	-8138
▁invent	-8139
▁hunting	-8140
▁longest	-8141
▁attitude	-8142
▁cheaper	-8143
emies	-8144
▁enemies	-8145
▁mommies	-8146
▁realizes	-8147
▁engines	-8148
▁deserved	-8149
cadabra	-8150
▁coolest	-8151
▁flowing	-8152
▁unable	-8153
▁fet	-8154
getic	-8155
▁Jody	-8156
▁Willy	-8157
▁flock	-8158
▁Pin	-8159
▁trigger	-8160
▁Sky	-8161
Sally	-8162
▁discouraged	-8163
▁rows	-8164
▁pills	-8165
▁Wo	-8166
▁whales	-8167
In	-8168
▁Jose	-8169
▁gulp	-8170
erg	-8171
▁clearly	-8172
▁envelopes	-8173
Sarah	-8174
whel	-8175
▁otters	-8176
▁reappeared	-8177
free	-8178
▁burger	-8179
str	-8180
▁Pet	-8181
▁Sand	-8182
▁Jennie	-8183
▁countries	-8184
▁compete	-8185
▁swimmer	-8186
▁chatting	-8187
▁glittered	-8188
▁robin	-8189
rick	-8190
▁Ne	-8191
▁clip	-8192
▁overwhel	-8193
▁quacking	-8194
▁sometime	-8195
▁passes	-8196
Pl	-8197
icate	-8198
▁tips	-8199
ending	-8200
▁torto	-8201
▁unco	-8202
▁thump	-8203
▁strips	-8204
balls	-8205
jest	-8206
▁Stri	-8207
▁ability	-8208
▁spilling	-8209
▁grasshopper	-8210
ouched	-8211
▁Moo	-8212
▁Make	-8213
aptain	-8214
▁Midnight	-8215
ingo	-8216
ship	-8217
▁Oliver	-8218
▁annoying	-8219
▁mattered	-8220
▁Oink	-8221
▁fond	-8222
▁tortoise	-8223
iter	-8224
▁details	-8225
▁soundly	-8226
off	-8227
▁common	-8228
▁patches	-8229
Ab	-8230
▁gallop	-8231
▁crowded	-8232
▁thicker	-8233
▁uniforms	-8234
▁enjoyable	-8235
▁cheerfully	-8236
▁whined	-8237
▁marking	-8238
▁sincere	-8239
▁yawning	-8240
▁Ed	-8241
▁treas	-8242
▁surely	-8243
œO	-8244
▁Gray	-8245
▁relaxing	-8246
▁doz	-8247
▁cheat	-8248
▁approach	-8249
▁companion	-8250
▁Boo	-8251
iolet	-8252
▁skies	-8253
Jo	-8254
▁jugg	-8255
▁Janet	-8256
▁outfits	-8257
oard	-8258
▁Bra	-8259
▁curl	-8260
▁Looking	-8261
▁Show	-8262
▁prod	-8263
stand	-8264
▁beetles	-8265
▁hangers	-8266
aus	-8267
▁Nice	-8268
▁Joanna	-8269
▁Martin	-8270
▁natural	-8271
▁cafe	-8272
▁formed	-8273
▁stur	-8274
▁Mamma	-8275
▁Through	-8276
▁becomes	-8277
▁whisk	-8278
▁noticing	-8279
▁vibrant	-8280
▁repairman	-8281
▁Monkey	-8282
▁washes	-8283
oss	-8284
elvet	-8285
▁treasured	-8286
▁aboard	-8287
▁airplanes	-8288
▁Care	-8289
▁bubbly	-8290
▁Yum	-8291
▁moat	-8292
▁Again	-8293
▁BunBun	-8294
▁weighing	-8295
▁shallow	-8296
▁squeaky	-8297
▁moonlight	-8298
▁backs	-8299
▁Accidents	-8300
bur	-8301
▁pleas	-8302
iggie	-8303
▁newspapers	-8304
Amy	-8305
▁Oh	-8306
▁chin	-8307
shadow	-8308
▁Leah	-8309
▁haircuts	-8310
▁melody	-8311
▁storms	-8312
▁swirls	-8313
▁hab	-8314
▁chill	-8315
▁blonde	-8316
uggy	-8317
▁Alf	-8318
asmine	-8319
▁Tiger	-8320
▁commun	-8321
▁messes	-8322
▁freezing	-8323
faction	-8324
▁hummed	-8325
▁erase	-8326
▁cowboys	-8327
▁squinted	-8328
▁satisfaction	-8329
▁dev	-8330
ering	-8331
▁bund	-8332
▁mugs	-8333
▁sneezes	-8334
▁miracle	-8335
▁slee	-8336
▁Captain	-8337
▁compliment	-8338
▁scattering	-8339
hole	-8340
▁blushed	-8341
▁leaking	-8342
▁successfully	-8343
œYay	-8344
▁calmer	-8345
▁lump	-8346
▁pepperoni	-8347
▁coughed	-8348
▁occasion	-8349
▁glittery	-8350
venir	-8351
endant	-8352
Tr	-8353
▁clue	-8354
▁yumm	-8355
▁sipped	-8356
▁weighs	-8357
▁souvenir	-8358
isp	-8359
ighty	-8360
▁Over	-8361
',	-8362
ints	-8363
ainbow	-8364
▁joyfully	-8365
▁positive	-8366
▁Er	-8367
▁Off	-8368
▁scenery	-8369
ware	-8370
▁Johny	-8371
immered	-8372
▁answering	-8373
▁explaining	-8374
▁situations	-8375
▁meatballs	-8376
▁ank	-8377
▁models	-8378
▁scares	-8379
▁bruises	-8380
▁smartest	-8381
Tw	-8382
▁bulbs	-8383
▁Whoever	-8384
▁pressing	-8385
▁tickling	-8386
Fluffy	-8387
bank	-8388
▁local	-8389
▁Ginger	-8390
▁unfair	-8391
▁welcoming	-8392
Joe	-8393
etchup	-8394
▁Hello	-8395
▁talents	-8396
belt	-8397
▁pantry	-8398
▁rubbish	-8399
amil	-8400
▁pinching	-8401
ift	-8402
Jimmy	-8403
▁snowy	-8404
▁burgers	-8405
▁Sunshine	-8406
▁Per	-8407
▁teap	-8408
▁bound	-8409
▁cleans	-8410
▁hisses	-8411
▁rewards	-8412
amboo	-8413
▁Cathy	-8414
▁possib	-8415
▁rewarding	-8416
▁shattered	-8417
HE	-8418
▁Avery	-8419
▁Chickie	-8420
Hmm	-8421
mel	-8422
▁roast	-8423
▁Jasmine	-8424
sie	-8425
Hold	-8426
▁Choo	-8427
▁Felix	-8428
▁traps	-8429
▁crocodiles	-8430
▁binoc	-8431
▁intently	-8432
▁scow	-8433
▁Super	-8434
▁Hootie	-8435
▁rowing	-8436
▁teapot	-8437
ili	-8438
oor	-8439
▁Playing	-8440
▁rebu	-8441
▁forts	-8442
scotch	-8443
▁digs	-8444
▁practised	-8445
▁topp	-8446
▁sturdy	-8447
▁seatbelt	-8448
▁Man	-8449
icious	-8450
▁minded	-8451
▁Dot	-8452
▁watermel	-8453
▁baller	-8454
▁groaned	-8455
▁Thankfully	-8456
▁whimp	-8457
▁tempted	-8458
▁marveled	-8459
now	-8460
▁bends	-8461
▁Gold	-8462
▁Steven	-8463
▁pilots	-8464
▁horri	-8465
beep	-8466
▁cells	-8467
▁ketchup	-8468
▁sandpit	-8469
▁stuffing	-8470
amiliar	-8471
▁angrily	-8472
▁croaked	-8473
▁funn	-8474
▁pipes	-8475
▁tunes	-8476
▁apology	-8477
▁unfamiliar	-8478
Honey	-8479
▁fireflies	-8480
▁Bruce	-8481
▁invites	-8482
▁lookout	-8483
▁bubbling	-8484
▁doorstep	-8485
▁energetic	-8486
!'.	-8487
▁Of	-8488
▁microw	-8489
▁runner	-8490
▁spoiling	-8491
▁smoking	-8492
▁finishes	-8493
▁meadows	-8494
▁tentacles	-8495
jack	-8496
▁clut	-8497
▁embra	-8498
▁microwave	-8499
▁exchange	-8500
œWeâ	-8501
▁Nate	-8502
▁tugging	-8503
▁Brad	-8504
Ahoy	-8505
▁Life	-8506
▁sweeter	-8507
Em	-8508
▁goodness	-8509
▁overwhelmed	-8510
ifi	-8511
▁chews	-8512
▁acts	-8513
▁shyly	-8514
▁slapping	-8515
lish	-8516
▁lar	-8517
acock	-8518
▁moons	-8519
▁shrank	-8520
▁messages	-8521
▁hesitation	-8522
rupt	-8523
▁weâ	-8524
▁cages	-8525
▁Elephant	-8526
▁stepping	-8527
▁strolled	-8528
▁protection	-8529
Che	-8530
nded	-8531
▁Fly	-8532
▁ripp	-8533
ulars	-8534
▁crisp	-8535
▁gasps	-8536
▁caterpillars	-8537
▁boards	-8538
▁dou	-8539
▁aston	-8540
▁popsic	-8541
▁cheating	-8542
▁chopping	-8543
▁jets	-8544
▁connect	-8545
umper	-8546
▁inju	-8547
▁lull	-8548
▁Light	-8549
▁defeat	-8550
▁melons	-8551
▁consider	-8552
▁playhouse	-8553
▁obst	-8554
Once	-8555
Achoo	-8556
▁Fifi	-8557
▁Isab	-8558
▁foam	-8559
▁slithered	-8560
▁binoculars	-8561
▁alley	-8562
▁underwater	-8563
anie	-8564
otion	-8565
▁demanding	-8566
ka	-8567
▁fade	-8568
atty	-8569
▁Beep	-8570
▁month	-8571
▁ballerina	-8572
sey	-8573
▁Tre	-8574
▁fishy	-8575
▁pouch	-8576
▁section	-8577
For	-8578
how	-8579
scar	-8580
▁Gemma	-8581
▁Te	-8582
▁Does	-8583
▁certainly	-8584
▁Josie	-8585
▁Sleep	-8586
▁rips	-8587
▁loyalty	-8588
▁transformed	-8589
Anytime	-8590
▁guards	-8591
▁Peep	-8592
▁Jackâ	-8593
▁cherish	-8594
▁meaning	-8595
▁hopscotch	-8596
▁differently	-8597
ole	-8598
yle	-8599
▁Surpr	-8600
▁recess	-8601
▁shares	-8602
racadabra	-8603
▁crouched	-8604
anted	-8605
▁pokes	-8606
▁bamboo	-8607
chief	-8608
▁prog	-8609
▁pounced	-8610
▁disappointment	-8611
▁squeezes	-8612
Danger	-8613
▁watermelon	-8614
Bl	-8615
▁''	-8616
Never	-8617
▁fist	-8618
iciest	-8619
▁riverbank	-8620
▁raking	-8621
▁Ms	-8622
▁Chuck	-8623
▁unwrapped	-8624
▁rack	-8625
▁stores	-8626
▁THE	-8627
▁Mighty	-8628
▁peacock	-8629
▁sweetly	-8630
alled	-8631
▁icky	-8632
▁Allie	-8633
▁ankle	-8634
▁erupt	-8635
▁Sandra	-8636
▁Con	-8637
▁thie	-8638
cycles	-8639
▁amused	-8640
▁playdate	-8641
,'	-8642
solut	-8643
▁birdy	-8644
▁Whe	-8645
▁fries	-8646
▁Minnie	-8647
▁nightmares	-8648
▁napped	-8649
▁landing	-8650
iring	-8651
▁Carol	-8652
▁snorted	-8653
▁cherished	-8654
Soon	-8655
▁Wait	-8656
▁Oscar	-8657
▁actor	-8658
▁mayor	-8659
▁Patrick	-8660
▁teamwork	-8661
▁whimpered	-8662
▁arrest	-8663
▁judges	-8664
▁Tears	-8665
rum	-8666
gets	-8667
▁thrill	-8668
Open	-8669
▁curre	-8670
▁blades	-8671
edic	-8672
▁Weâ	-8673
▁Claus	-8674
▁thunderstorm	-8675
œHow	-8676
filled	-8677
▁crickets	-8678
▁Day	-8679
▁gates	-8680
▁thieves	-8681
▁majest	-8682
▁roo	-8683
▁tickles	-8684
▁centre	-8685
▁groups	-8686
▁miller	-8687
▁Jere	-8688
▁sacks	-8689
▁shoel	-8690
▁injured	-8691
▁mysteries	-8692
▁temptation	-8693
Jane	-8694
▁Fish	-8695
▁Ouch	-8696
▁Sal	-8697
▁Bamb	-8698
▁Marley	-8699
▁lumberjack	-8700
▁stew	-8701
▁tant	-8702
uster	-8703
▁ding	-8704
▁styles	-8705
▁snapping	-8706
rob	-8707
▁boil	-8708
▁spare	-8709
Benny	-8710
▁Stanley	-8711
isdom	-8712
▁Mine	-8713
▁Share	-8714
▁leans	-8715
▁townsp	-8716
▁condition	-8717
▁frustration	-8718
ris	-8719
that	-8720
uess	-8721
▁choosing	-8722
▁hundreds	-8723
othy	-8724
Hurry	-8725
▁charm	-8726
▁Birdie	-8727
▁auntie	-8728
▁keyhole	-8729
tern	-8730
▁enemy	-8731
▁scene	-8732
▁intelligence	-8733
▁creams	-8734
▁structures	-8735
uction	-8736
inct	-8737
hings	-8738
▁Bambi	-8739
▁Wilbur	-8740
▁seasons	-8741
nces	-8742
▁ruff	-8743
▁Boun	-8744
▁whir	-8745
▁banging	-8746
▁sleeps	-8747
▁spears	-8748
▁benches	-8749
Tweet	-8750
▁Nell	-8751
▁supporting	-8752
▁Lots	-8753
▁heels	-8754
▁rebuild	-8755
▁tantrum	-8756
▁hissing	-8757
▁textures	-8758
icest	-8759
oured	-8760
▁level	-8761
▁trading	-8762
▁swimsuits	-8763
First	-8764
▁levers	-8765
▁communicate	-8766
▁bas	-8767
▁plo	-8768
▁weaker	-8769
ige	-8770
▁Gw	-8771
sers	-8772
▁bold	-8773
▁Jodie	-8774
▁nicest	-8775
▁wiggling	-8776
▁computers	-8777
▁townspeople	-8778
▁shinier	-8779
▁alongside	-8780
▁electricity	-8781
▁Tra	-8782
▁lush	-8783
▁Mumma	-8784
▁trusty	-8785
uno	-8786
▁Ber	-8787
▁timid	-8788
▁luckiest	-8789
reled	-8790
▁softened	-8791
▁dart	-8792
▁pedaling	-8793
▁experiment	-8794
▁magnifying	-8795
Jill	-8796
▁camel	-8797
▁thumbs	-8798
Which	-8799
under	-8800
▁claw	-8801
reg	-8802
▁tot	-8803
▁stun	-8804
▁mooed	-8805
▁kneeling	-8806
▁astonished	-8807
▁prank	-8808
▁warmed	-8809
▁glisten	-8810
▁Tree	-8811
▁reversing	-8812
lyn	-8813
▁Jonathan	-8814
gar	-8815
▁Jeremy	-8816
▁quarreled	-8817
▁whine	-8818
▁foggy	-8819
▁skirts	-8820
▁trusts	-8821
▁writer	-8822
▁toothbrush	-8823
▁disappearing	-8824
▁da	-8825
▁Hug	-8826
▁Woof	-8827
▁cops	-8828
▁Fa	-8829
aisie	-8830
prints	-8831
▁harvest	-8832
▁guarding	-8833
"!	-8834
ormation	-8835
Grandpa	-8836
▁Near	-8837
solutely	-8838
▁knobs	-8839
▁continuing	-8840
cat	-8841
mie	-8842
▁Colin	-8843
▁groom	-8844
▁worst	-8845
œM	-8846
▁boiling	-8847
▁Carefully	-8848
▁tops	-8849
▁fetched	-8850
▁compared	-8851
▁motorcycles	-8852
▁bowing	-8853
▁peak	-8854
▁yelp	-8855
▁Hopper	-8856
▁revealing	-8857
cell	-8858
▁Alan	-8859
▁Hank	-8860
▁wrench	-8861
▁concerned	-8862
▁improving	-8863
▁sensation	-8864
▁unless	-8865
▁magically	-8866
ial	-8867
▁bushy	-8868
▁creep	-8869
▁Maisie	-8870
▁lullaby	-8871
▁baa	-8872
▁Hurry	-8873
▁Buster	-8874
▁oldest	-8875
▁cupboards	-8876
▁kangaroos	-8877
▁Was	-8878
œThanks	-8879
Try	-8880
▁owns	-8881
▁popping	-8882
▁disagre	-8883
ker	-8884
guard	-8885
barrow	-8886
▁doesnâ	-8887
▁cuddling	-8888
▁journeys	-8889
▁wheelbarrow	-8890
ps	-8891
ala	-8892
▁canv	-8893
▁poisonous	-8894
well	-8895
▁shh	-8896
▁Girl	-8897
▁cooled	-8898
agine	-8899
▁Peanut	-8900
Deal	-8901
Teddy	-8902
▁Cook	-8903
▁JoJo	-8904
▁Buggy	-8905
▁whirl	-8906
▁brains	-8907
▁embarrassing	-8908
ibly	-8909
▁blade	-8910
▁allowing	-8911
▁guardian	-8912
▁Clare	-8913
▁Libby	-8914
▁aloud	-8915
▁sneaks	-8916
▁soothing	-8917
oto	-8918
urity	-8919
▁drying	-8920
▁shoots	-8921
ifer	-8922
▁Summer	-8923
▁allerg	-8924
▁facing	-8925
▁realise	-8926
inny	-8927
▁Lucas	-8928
▁narrow	-8929
▁Gwen	-8930
▁facts	-8931
aling	-8932
▁invitations	-8933
▁arom	-8934
▁larger	-8935
œWelcome	-8936
▁coughing	-8937
▁courageous	-8938
iky	-8939
▁--	-8940
▁heavily	-8941
▁Whatâ	-8942
▁quilt	-8943
▁dashed	-8944
▁mindful	-8945
cutter	-8946
▁troll	-8947
▁deeply	-8948
▁Thumper	-8949
œS	-8950
▁Char	-8951
▁current	-8952
▁mustered	-8953
Does	-8954
vering	-8955
▁sleds	-8956
▁canvas	-8957
▁angrier	-8958
Abracadabra	-8959
▁Gret	-8960
▁susp	-8961
▁nearer	-8962
▁disaster	-8963
▁Gl	-8964
▁whoosh	-8965
▁Jennifer	-8966
▁Math	-8967
▁blooms	-8968
▁puppets	-8969
ai	-8970
▁bud	-8971
▁cousins	-8972
▁sobbing	-8973
mark	-8974
▁Dra	-8975
inging	-8976
▁repeats	-8977
▁instinct	-8978
ogo	-8979
▁desper	-8980
▁throne	-8981
▁Ice	-8982
▁knit	-8983
▁costs	-8984
▁honks	-8985
▁zips	-8986
▁hollow	-8987
▁shrugs	-8988
▁wolves	-8989
▁loudest	-8990
▁scoops	-8991
▁cracker	-8992
▁contented	-8993
▁completing	-8994
▁caps	-8995
▁exh	-8996
▁Patches	-8997
▁realizing	-8998
▁circled	-8999
pect	-9000
▁lava	-9001
▁medals	-9002
▁flashes	-9003
▁plopped	-9004
▁warmest	-9005
▁Tomorrow	-9006
▁property	-9007
▁repairing	-9008
▁foreshadow	-9009
▁hips	-9010
▁mold	-9011
▁winds	-9012
▁attempts	-9013
▁hangs	-9014
▁copied	-9015
▁depart	-9016
rap	-9017
▁opt	-9018
▁whipped	-9019
ashes	-9020
▁waking	-9021
▁flooded	-9022
▁security	-9023
▁till	-9024
antern	-9025
colored	-9026
▁necess	-9027
▁cooperate	-9028
▁preschool	-9029
▁Toto	-9030
▁skate	-9031
▁lizards	-9032
▁achievement	-9033
this	-9034
▁Bea	-9035
elling	-9036
▁calming	-9037
▁woodcutter	-9038
▁rails	-9039
▁cutter	-9040
▁kayaking	-9041
▁spiky	-9042
▁fights	-9043
▁pose	-9044
▁sooner	-9045
▁Matthew	-9046
sa	-9047
▁heâ	-9048
▁dozed	-9049
▁Pinchy	-9050
▁glared	-9051
▁harmony	-9052
▁pleasant	-9053
cri	-9054
▁theat	-9055
▁huddled	-9056
▁allowance	-9057
▁manâ	-9058
▁incredibly	-9059
▁Jes	-9060
▁Bark	-9061
tled	-9062
œThere	-9063
▁hooves	-9064
▁juiciest	-9065
▁footprints	-9066
▁Deal	-9067
▁lunchtime	-9068
emon	-9069
▁isnâ	-9070
obin	-9071
▁minding	-9072
▁gratefully	-9073
▁tale	-9074
▁ticking	-9075
▁disagreement	-9076
bbi	-9077
▁otherwise	-9078
rrrr	-9079
▁purch	-9080
▁hatched	-9081
▁aroma	-9082
Nothing	-9083
▁builder	-9084
▁swapped	-9085
▁seriously	-9086
iana	-9087
▁cig	-9088
œWould	-9089
▁perfor	-9090
▁bellies	-9091
▁shave	-9092
▁CD	-9093
▁Bruno	-9094
▁grump	-9095
▁glistening	-9096
ssy	-9097
▁theatre	-9098
▁jing	-9099
▁robe	-9100
▁soda	-9101
▁booth	-9102
▁loads	-9103
▁speaks	-9104
▁Flutter	-9105
▁strokes	-9106
▁movement	-9107
ics	-9108
pan	-9109
▁springing	-9110
▁absolutely	-9111
▁challenges	-9112
Moo	-9113
▁webs	-9114
▁habit	-9115
▁oceans	-9116
▁cigaret	-9117
reya	-9118
▁capture	-9119
▁sniffled	-9120
▁interrupt	-9121
▁lifeguard	-9122
▁possibilities	-9123
▁Wolf	-9124
▁quacks	-9125
▁persistence	-9126
▁Ye	-9127
hand	-9128
oned	-9129
▁owls	-9130
▁glanced	-9131
▁Greg	-9132
▁ench	-9133
Friend	-9134
▁Could	-9135
▁lasted	-9136
▁Sitting	-9137
iments	-9138
▁Freya	-9139
▁admit	-9140
▁stalk	-9141
▁musicians	-9142
▁Ami	-9143
▁bats	-9144
▁pollen	-9145
ggles	-9146
▁blamed	-9147
▁bumping	-9148
icent	-9149
▁Smoke	-9150
▁daily	-9151
▁lever	-9152
▁Jump	-9153
sitter	-9154
▁Johnâ	-9155
▁Missy	-9156
aps	-9157
ost	-9158
▁bathed	-9159
▁Mac	-9160
▁hoot	-9161
▁rinse	-9162
▁speaker	-9163
▁imaginations	-9164
▁stirs	-9165
▁Pa	-9166
▁springtime	-9167
▁nets	-9168
▁Carly	-9169
▁dolly	-9170
▁overfl	-9171
▁goggles	-9172
▁smoothly	-9173
▁hooks	-9174
▁floppy	-9175
▁uncovered	-9176
▁desperately	-9177
icking	-9178
▁Nicky	-9179
▁desks	-9180
▁folds	-9181
▁pounds	-9182
▁ful	-9183
▁Nurse	-9184
▁racer	-9185
▁caution	-9186
▁progress	-9187
▁mesmerised	-9188
oga	-9189
▁wrapper	-9190
▁passenger	-9191
Fire	-9192
Only	-9193
▁energ	-9194
▁Things	-9195
▁messed	-9196
▁stains	-9197
œAre	-9198
▁priv	-9199
just	-9200
▁Skip	-9201
▁cooed	-9202
▁deciding	-9203
▁stacking	-9204
▁introducing	-9205
▁Doctor	-9206
▁cutest	-9207
▁process	-9208
▁necessary	-9209
Jump	-9210
▁disobeyed	-9211
Daisy	-9212
▁laces	-9213
▁roamed	-9214
▁amongst	-9215
▁desperate	-9216
rons	-9217
onest	-9218
▁hatch	-9219
▁piled	-9220
▁yummiest	-9221
▁recommendation	-9222
od	-9223
▁aprons	-9224
mate	-9225
▁chili	-9226
▁parks	-9227
▁shooed	-9228
▁undone	-9229
erts	-9230
▁wax	-9231
▁trim	-9232
▁fooled	-9233
▁allergic	-9234
▁babysitter	-9235
▁obediently	-9236
ically	-9237
▁champ	-9238
▁pecks	-9239
▁scut	-9240
▁kinder	-9241
▁date	-9242
omp	-9243
▁Pink	-9244
▁maps	-9245
▁anten	-9246
▁vinegar	-9247
▁desserts	-9248
Baa	-9249
fusion	-9250
▁exhib	-9251
▁Joseph	-9252
▁hovering	-9253
▁confusion	-9254
▁differences	-9255
▁magnificent	-9256
▁hadnâ	-9257
▁sleigh	-9258
▁purring	-9259
aste	-9260
onut	-9261
▁Olly	-9262
▁widely	-9263
bed	-9264
isbee	-9265
▁Moon	-9266
▁Sean	-9267
▁swat	-9268
▁dedic	-9269
▁hoses	-9270
▁wanna	-9271
▁gulped	-9272
▁kissing	-9273
▁alligators	-9274
shirt	-9275
keepers	-9276
▁Bouncy	-9277
▁instincts	-9278
▁Years	-9279
▁clubs	-9280
▁chains	-9281
ani	-9282
umed	-9283
▁coop	-9284
bs	-9285
▁hamster	-9286
▁rinsed	-9287
▁greatest	-9288
▁scratchy	-9289
▁untangle	-9290
▁ric	-9291
▁unz	-9292
▁coconut	-9293
▁Instantly	-9294
▁charged	-9295
▁ostriches	-9296
▁bundle	-9297
mers	-9298
▁nibbling	-9299
▁silently	-9300
▁Lightning	-9301
▁compromise	-9302
▁cuc	-9303
▁depths	-9304
▁snoring	-9305
▁headache	-9306
▁Muff	-9307
▁army	-9308
▁crafts	-9309
▁lunchbox	-9310
she	-9311
▁Fay	-9312
▁bolt	-9313
▁Which	-9314
▁Father	-9315
▁comets	-9316
▁roller	-9317
▁reflect	-9318
▁valleys	-9319
▁Eve	-9320
▁bait	-9321
acey	-9322
▁creak	-9323
berry	-9324
▁blur	-9325
▁doves	-9326
▁cloths	-9327
▁gladly	-9328
▁tempting	-9329
▁borrowing	-9330
▁performers	-9331
Isn	-9332
ellow	-9333
▁ages	-9334
▁doggie	-9335
form	-9336
aming	-9337
▁Gogo	-9338
▁rocky	-9339
▁slurp	-9340
▁confidently	-9341
▁lif	-9342
▁Noah	-9343
▁halves	-9344
▁squirted	-9345
OO	-9346
los	-9347
▁Faith	-9348
▁keen	-9349
▁drill	-9350
▁learner	-9351
▁challenged	-9352
▁files	-9353
▁mustn	-9354
▁pizzas	-9355
▁unfold	-9356
▁Otherwise	-9357
oors	-9358
▁lil	-9359
▁indoors	-9360
dia	-9361
▁scre	-9362
▁gradually	-9363
of	-9364
▁hippos	-9365
▁riddle	-9366
▁sparrow	-9367
▁Ned	-9368
▁Turn	-9369
▁gummy	-9370
▁handy	-9371
▁rotted	-9372
▁softest	-9373
?!	-9374
▁croak	-9375
▁gooey	-9376
▁towns	-9377
andel	-9378
aroni	-9379
gr	-9380
▁Jelly	-9381
▁detect	-9382
▁retrie	-9383
▁laws	-9384
▁cluck	-9385
idi	-9386
ousy	-9387
▁royal	-9388
▁Brother	-9389
▁Lydia	-9390
▁Billie	-9391
imbo	-9392
▁Doug	-9393
▁galloped	-9394
Aw	-9395
▁bloss	-9396
▁toppings	-9397
▁shoelaces	-9398
▁Bug	-9399
▁Panda	-9400
▁escap	-9401
▁stings	-9402
▁appearance	-9403
▁Hi	-9404
▁Fran	-9405
▁Pear	-9406
losure	-9407
▁Though	-9408
▁sinking	-9409
▁enclosure	-9410
Ooh	-9411
œWill	-9412
▁echo	-9413
▁tiring	-9414
▁Puddles	-9415
▁tastiest	-9416
▁Books	-9417
▁unicorns	-9418
orse	-9419
▁ass	-9420
Bless	-9421
▁sends	-9422
▁flavour	-9423
▁automobiles	-9424
▁science	-9425
▁steered	-9426
▁peacefulness	-9427
▁Tri	-9428
rings	-9429
▁overhe	-9430
hh	-9431
zing	-9432
fived	-9433
▁freely	-9434
▁Clean	-9435
ongratulations	-9436
▁boyâ	-9437
▁Grumpy	-9438
▁boiled	-9439
▁rooster	-9440
inner	-9441
▁Black	-9442
▁route	-9443
▁enjoys	-9444
cloth	-9445
▁Play	-9446
▁hare	-9447
▁hovered	-9448
▁Sid	-9449
▁Piggy	-9450
▁pecking	-9451
▁scrubbing	-9452
▁Tia	-9453
▁host	-9454
▁niece	-9455
izza	-9456
▁Cro	-9457
▁gorge	-9458
▁Boy	-9459
▁Mousy	-9460
▁carton	-9461
▁guesses	-9462
▁scrunched	-9463
good	-9464
▁Too	-9465
urple	-9466
arning	-9467
▁risky	-9468
▁Muffin	-9469
▁brakes	-9470
▁crushed	-9471
▁plumber	-9472
cr	-9473
why	-9474
▁Lucyâ	-9475
▁fluff	-9476
▁hates	-9477
▁stacks	-9478
▁globe	-9479
▁beeping	-9480
aly	-9481
▁lur	-9482
▁Biggie	-9483
▁lilies	-9484
▁stinky	-9485
▁lightly	-9486
▁restoring	-9487
▁Del	-9488
▁whizz	-9489
▁hunger	-9490
ality	-9491
▁Jimbo	-9492
▁swoop	-9493
▁mashed	-9494
▁feathered	-9495
▁occasions	-9496
▁snuggling	-9497
ki	-9498
▁dumb	-9499
▁Wisdom	-9500
▁winners	-9501
▁earrings	-9502
▁macaroni	-9503
▁pounding	-9504
nda	-9505
▁leaped	-9506
▁gorgeous	-9507
elve	-9508
Guess	-9509
▁drip	-9510
▁dusted	-9511
▁dripped	-9512
umn	-9513
▁fuss	-9514
▁Dee	-9515
▁god	-9516
▁Chew	-9517
▁Turt	-9518
▁ashes	-9519
Playing	-9520
▁shortcut	-9521
▁carefree	-9522
▁softness	-9523
▁stroller	-9524
▁regularly	-9525
▁fail	-9526
▁Steph	-9527
▁organised	-9528
▁fashionable	-9529
▁taps	-9530
▁rider	-9531
▁Wiggly	-9532
▁deserves	-9533
asper	-9534
▁lonel	-9535
▁whiskers	-9536
▁Tay	-9537
▁Marg	-9538
▁Tell	-9539
▁slight	-9540
▁venture	-9541
▁department	-9542
▁Bar	-9543
▁halfway	-9544
▁horrible	-9545
▁plat	-9546
▁scores	-9547
▁builders	-9548
can	-9549
eng	-9550
▁tents	-9551
▁Willie	-9552
▁listener	-9553
▁Cow	-9554
œMummy	-9555
▁handleb	-9556
▁platform	-9557
▁helicopters	-9558
look	-9559
▁Mic	-9560
▁peeks	-9561
▁petal	-9562
▁guided	-9563
▁whines	-9564
▁brightened	-9565
▁fanc	-9566
▁descri	-9567
▁woken	-9568
▁Mint	-9569
▁leng	-9570
▁shaky	-9571
▁lantern	-9572
che	-9573
kind	-9574
▁pearls	-9575
▁nations	-9576
▁Caroline	-9577
▁ladybird	-9578
▁ordering	-9579
▁nug	-9580
anish	-9581
▁Dina	-9582
▁Find	-9583
▁fans	-9584
working	-9585
▁mischief	-9586
œGo	-9587
Jenny	-9588
udrey	-9589
▁access	-9590
▁App	-9591
▁rags	-9592
▁suck	-9593
▁Nature	-9594
▁furious	-9595
▁nightstand	-9596
orth	-9597
▁mur	-9598
▁carn	-9599
▁rods	-9600
▁Johnnie	-9601
▁majestic	-9602
▁information	-9603
▁Joanne	-9604
▁phones	-9605
▁handles	-9606
▁snowflake	-9607
▁zookeepers	-9608
aving	-9609
▁mats	-9610
creams	-9611
▁invol	-9612
▁Squeak	-9613
▁unlocking	-9614
▁dives	-9615
▁Audrey	-9616
▁exercising	-9617
▁Susy	-9618
▁shots	-9619
urrender	-9620
▁scowled	-9621
▁community	-9622
illas	-9623
inema	-9624
Mag	-9625
▁Wow	-9626
ridge	-9627
▁Want	-9628
▁Heidi	-9629
▁overheard	-9630
appy	-9631
etah	-9632
▁devast	-9633
▁quarrell	-9634
▁displaying	-9635
ously	-9636
isible	-9637
orious	-9638
▁actors	-9639
▁rightful	-9640
▁sweetness	-9641
aya	-9642
ira	-9643
▁aid	-9644
▁Toys	-9645
▁palms	-9646
▁proved	-9647
▁squawk	-9648
▁poop	-9649
▁Jemma	-9650
▁honeycom	-9651
osy	-9652
field	-9653
cellent	-9654
▁cinema	-9655
book	-9656
▁Gail	-9657
▁boarded	-9658
▁invisible	-9659
ilar	-9660
▁Pop	-9661
▁twelve	-9662
▁cheetah	-9663
▁tongues	-9664
▁Down	-9665
▁slot	-9666
▁ribbit	-9667
▁heights	-9668
▁soul	-9669
▁Bernie	-9670
▁nudged	-9671
aron	-9672
▁praise	-9673
'."	-9674
shes	-9675
▁Puppy	-9676
▁caves	-9677
▁untangled	-9678
œP	-9679
▁Son	-9680
▁glows	-9681
▁Isabella	-9682
▁competing	-9683
Itâ	-9684
▁beaks	-9685
▁state	-9686
▁Willow	-9687
▁lighting	-9688
▁devastated	-9689
▁Marcy	-9690
▁mend	-9691
▁Taylor	-9692
▁fences	-9693
ssssssss	-9694
▁contained	-9695
▁complimented	-9696
▁Du	-9697
tock	-9698
▁mound	-9699
▁Copper	-9700
▁panting	-9701
▁threads	-9702
▁funniest	-9703
▁striking	-9704
▁dedication	-9705
▁frightening	-9706
▁Gert	-9707
▁damp	-9708
▁pads	-9709
rit	-9710
mosp	-9711
shop	-9712
▁Old	-9713
▁Matty	-9714
▁atmosp	-9715
▁dining	-9716
▁anybody	-9717
▁atmosphere	-9718
▁une	-9719
▁tend	-9720
clock	-9721
▁lakes	-9722
▁possess	-9723
▁champion	-9724
▁enchanted	-9725
▁Ot	-9726
Enjoy	-9727
▁gle	-9728
▁peels	-9729
▁entering	-9730
▁exist	-9731
▁trailer	-9732
▁carnival	-9733
▁farthest	-9734
▁shimmered	-9735
▁pace	-9736
▁solid	-9737
▁offers	-9738
▁chooses	-9739
▁service	-9740
▁servants	-9741
ooh	-9742
▁batch	-9743
▁values	-9744
▁Mara	-9745
▁Shadow	-9746
▁totally	-9747
▁vol	-9748
ingly	-9749
▁Greta	-9750
▁Ostri	-9751
▁fiercely	-9752
▁managing	-9753
▁ducklings	-9754
ders	-9755
▁mushy	-9756
▁nuggets	-9757
▁caf	-9758
▁Alfie	-9759
▁spice	-9760
▁priest	-9761
▁exhibit	-9762
▁pancake	-9763
▁deck	-9764
▁Alexa	-9765
▁pairs	-9766
▁Chicky	-9767
▁crispy	-9768
▁sleeve	-9769
rem	-9770
▁farms	-9771
▁blessed	-9772
▁presence	-9773
▁dips	-9774
▁backward	-9775
▁Ni	-9776
▁antlers	-9777
▁gorillas	-9778
ocks	-9779
seed	-9780
ousel	-9781
sorry	-9782
▁tanks	-9783
▁rumbled	-9784
▁squawked	-9785
dog	-9786
ggie	-9787
▁Fore	-9788
▁popsicle	-9789
asy	-9790
wood	-9791
▁rea	-9792
▁sizz	-9793
▁shuff	-9794
▁lasers	-9795
▁weights	-9796
▁whether	-9797
▁suspicious	-9798
▁carousel	-9799
▁energized	-9800
yd	-9801
tured	-9802
▁vacu	-9803
▁Pearl	-9804
▁plank	-9805
▁winks	-9806
▁considerate	-9807
bly	-9808
▁snip	-9809
inting	-9810
▁camps	-9811
▁Goldie	-9812
▁length	-9813
▁birdseed	-9814
▁smoother	-9815
▁scrape	-9816
▁twirls	-9817
▁Timothy	-9818
▁frisbee	-9819
Ice	-9820
œMe	-9821
▁obl	-9822
▁vests	-9823
believe	-9824
▁tripping	-9825
▁Flash	-9826
▁Sundays	-9827
▁reality	-9828
▁spirits	-9829
▁Isla	-9830
▁oars	-9831
▁cerem	-9832
▁Bailey	-9833
▁correct	-9834
▁parking	-9835
▁twitched	-9836
iet	-9837
▁loos	-9838
eading	-9839
œWait	-9840
▁atop	-9841
▁birdâ	-9842
▁subject	-9843
▁Af	-9844
▁commotion	-9845
▁homeless	-9846
▁handlebars	-9847
▁threatened	-9848
ical	-9849
mbur	-9850
▁ceremony	-9851
▁attaching	-9852
▁delightful	-9853
▁Bree	-9854
▁Geor	-9855
▁ripples	-9856
▁wrecked	-9857
▁sickness	-9858
▁practising	-9859
▁huff	-9860
▁Ellen	-9861
▁nestled	-9862
▁seeking	-9863
elsey	-9864
▁sunb	-9865
itcher	-9866
▁skips	-9867
▁Alison	-9868
▁Turtle	-9869
▁elders	-9870
▁hambur	-9871
ya	-9872
▁Yoga	-9873
▁sells	-9874
▁grandk	-9875
▁designer	-9876
▁purchase	-9877
Whoa	-9878
▁spied	-9879
▁sneaking	-9880
▁solutions	-9881
issy	-9882
▁wig	-9883
▁Chip	-9884
▁hind	-9885
ousand	-9886
▁skinny	-9887
▁addition	-9888
Jen	-9889
eat	-9890
▁runny	-9891
▁swirled	-9892
Everything	-9893
rice	-9894
▁reck	-9895
▁wadd	-9896
▁Stret	-9897
▁Thunder	-9898
▁grumble	-9899
▁Confused	-9900
▁Wherever	-9901
▁workshop	-9902
▁chattered	-9903
▁loneliness	-9904
▁speck	-9905
▁online	-9906
▁bounded	-9907
▁gliding	-9908
▁studies	-9909
▁clothing	-9910
▁suggests	-9911
▁supermark	-9912
▁calf	-9913
▁hoof	-9914
icated	-9915
▁Stand	-9916
▁cooks	-9917
▁campsite	-9918
aper	-9919
thur	-9920
ylan	-9921
eline	-9922
▁trunks	-9923
▁Anytime	-9924
▁contents	-9925
▁patients	-9926
▁supermarket	-9927
Emma	-9928
▁fif	-9929
▁Cars	-9930
▁tink	-9931
▁cruel	-9932
▁launch	-9933
▁supplying	-9934
eller	-9935
▁urging	-9936
▁avoided	-9937
▁neighed	-9938
▁stained	-9939
▁injuries	-9940
▁Mus	-9941
▁Oak	-9942
dream	-9943
▁polka	-9944
▁dustpan	-9945
▁honeycomb	-9946
▁squish	-9947
▁reckless	-9948
▁swirling	-9949
▁Nia	-9950
▁Sil	-9951
▁Laure	-9952
▁droop	-9953
▁exams	-9954
▁porridge	-9955
▁tumbling	-9956
▁Paws	-9957
▁unst	-9958
▁yuck	-9959
▁Carrie	-9960
▁freshly	-9961
Sweet	-9962
▁aback	-9963
▁Arthur	-9964
▁antenna	-9965
ann	-9966
wing	-9967
▁White	-9968
▁scaly	-9969
▁darted	-9970
▁lurking	-9971
▁Wilma	-9972
▁blame	-9973
Friends	-9974
▁Nibbles	-9975
▁painful	-9976
▁gardening	-9977
ooked	-9978
▁Dylan	-9979
▁horror	-9980
▁pitcher	-9981
▁holidays	-9982
▁projects	-9983
Make	-9984
▁buckles	-9985
▁possession	-9986
▁Lex	-9987
▁voy	-9988
▁Ping	-9989
▁Gilly	-9990
▁aband	-9991
▁meets	-9992
▁Albert	-9993
▁pudding	-9994
▁Open	-9995
▁Wise	-9996
▁inno	-9997
Mittens	-9998
▁Justin	-9999
▁Paw	-10000
▁clips	-10001
▁tours	-10002
▁tingle	-10003
▁snowing	-10004
saw	-10005
▁Mole	-10006
▁pals	-10007
▁desce	-10008
▁dodging	-10009
▁massages	-10010
▁resisting	-10011
▁toad	-10012
▁raked	-10013
▁knitting	-10014
▁Friendship	-10015
peck	-10016
▁Jun	-10017
▁Scr	-10018
▁sax	-10019
▁Faye	-10020
▁vast	-10021
▁Layla	-10022
▁marvel	-10023
▁wicked	-10024
▁recipes	-10025
▁daydream	-10026
▁attendant	-10027
▁disagreeing	-10028
œHere	-10029
▁carve	-10030
▁thousand	-10031
▁hammering	-10032
Lisa	-10033
▁fully	-10034
▁scree	-10035
uttered	-10036
▁Crusty	-10037
▁Purple	-10038
ustrated	-10039
▁hurtful	-10040
▁reaction	-10041
œMum	-10042
▁ris	-10043
▁Sarahâ	-10044
▁dandel	-10045
▁anyways	-10046
▁perse	-10047
▁Margaret	-10048
made	-10049
▁Cher	-10050
▁hairs	-10051
▁stormy	-10052
▁div	-10053
ushes	-10054
Leo	-10055
use	-10056
▁Ivy	-10057
▁wetter	-10058
▁Monster	-10059
▁Duke	-10060
▁buys	-10061
▁Ostrich	-10062
▁streams	-10063
▁forwards	-10064
▁tightened	-10065
œC	-10066
▁ray	-10067
œJohn	-10068
▁code	-10069
Should	-10070
▁erasers	-10071
▁explode	-10072
▁squirmed	-10073
Bu	-10074
ils	-10075
isher	-10076
▁Most	-10077
▁Snap	-10078
▁grasp	-10079
▁clutched	-10080
▁grandkids	-10081
▁Gerry	-10082
▁Jolly	-10083
▁Nelly	-10084
▁Cheese	-10085
▁speedy	-10086
▁wobbles	-10087
▁disappears	-10088
▁Eating	-10089
▁slightly	-10090
▁suitcases	-10091
▁possessions	-10092
icia	-10093
▁Pig	-10094
▁tone	-10095
colate	-10096
▁Frustrated	-10097
ildren	-10098
▁cooper	-10099
▁voyage	-10100
▁pedalled	-10101
aids	-10102
arled	-10103
▁Afric	-10104
▁Chess	-10105
▁Yellow	-10106
▁dumped	-10107
▁Imagine	-10108
▁Working	-10109
▁Sa	-10110
▁soggy	-10111
▁arrange	-10112
▁islands	-10113
▁guitars	-10114
▁winking	-10115
Something	-10116
▁disgusted	-10117
▁sly	-10118
Sleep	-10119
▁Last	-10120
▁rink	-10121
▁stiff	-10122
▁racers	-10123
▁Cuddles	-10124
▁woodpeck	-10125
Beware	-10126
▁potty	-10127
▁villain	-10128
gre	-10129
▁sim	-10130
tling	-10131
▁blob	-10132
▁armor	-10133
▁Flappy	-10134
▁Lauren	-10135
▁owning	-10136
▁spoken	-10137
▁performer	-10138
okay	-10139
▁Janice	-10140
▁constr	-10141
▁puffed	-10142
▁settling	-10143
▁discussion	-10144
ryst	-10145
▁Den	-10146
▁Petey	-10147
▁gruff	-10148
istened	-10149
▁unkind	-10150
▁streaming	-10151
▁scientists	-10152
▁grandchildren	-10153
From	-10154
atic	-10155
▁tutu	-10156
▁Fishy	-10157
▁raises	-10158
▁Charles	-10159
▁hideout	-10160
▁surrounding	-10161
▁Shark	-10162
▁begun	-10163
▁device	-10164
Everyone	-10165
itam	-10166
ateful	-10167
▁riches	-10168
gra	-10169
ika	-10170
udge	-10171
▁More	-10172
▁Orange	-10173
▁studio	-10174
▁gn	-10175
▁adop	-10176
▁reel	-10177
▁Jumpy	-10178
▁unload	-10179
▁glimmer	-10180
▁parrots	-10181
▁sculptures	-10182
▁sheâ	-10183
riting	-10184
▁carved	-10185
▁stomachs	-10186
▁Pee	-10187
▁Wal	-10188
▁howl	-10189
▁floaty	-10190
▁litter	-10191
œBecause	-10192
▁glistened	-10193
▁pave	-10194
▁tales	-10195
▁embrace	-10196
▁granny	-10197
▁rustle	-10198
▁toothp	-10199
▁obstacles	-10200
Hoor	-10201
▁Bop	-10202
▁Hal	-10203
▁adv	-10204
Hooray	-10205
▁Miles	-10206
▁Whist	-10207
▁quicker	-10208
▁connection	-10209
jamin	-10210
▁Doll	-10211
espect	-10212
smelling	-10213
▁scooping	-10214
▁adventurers	-10215
▁contentment	-10216
▁Cass	-10217
▁capes	-10218
▁vitam	-10219
nings	-10220
▁assist	-10221
▁pavement	-10222
▁protector	-10223
▁woodpecker	-10224
▁Yet	-10225
▁Lexi	-10226
▁trad	-10227
▁Furry	-10228
▁persu	-10229
▁yawns	-10230
▁reappear	-10231
▁awa	-10232
▁acrob	-10233
▁musical	-10234
▁pref	-10235
▁autumn	-10236
▁Surprised	-10237
▁ruled	-10238
▁showers	-10239
▁Benjamin	-10240
▁arrested	-10241
▁Mix	-10242
apple	-10243
▁jeans	-10244
▁shame	-10245
▁snarled	-10246
▁Ev	-10247
▁Dora	-10248
rystal	-10249
▁chirps	-10250
▁equally	-10251
▁passion	-10252
▁interrupted	-10253
NG	-10254
▁Gu	-10255
▁drople	-10256
▁refusing	-10257
▁steaming	-10258
ressed	-10259
▁unlike	-10260
▁Ada	-10261
▁lumpy	-10262
▁resour	-10263
▁explan	-10264
hocolate	-10265
▁tingling	-10266
▁thoughtfully	-10267
res	-10268
Wake	-10269
ants	-10270
reet	-10271
▁Ball	-10272
▁Otto	-10273
▁sauc	-10274
▁mixes	-10275
▁scolding	-10276
▁jigg	-10277
▁Scott	-10278
hearted	-10279
▁payoff	-10280
▁produc	-10281
▁saddle	-10282
▁Spanish	-10283
▁abandoned	-10284
▁nightfall	-10285
œHelp	-10286
▁Butt	-10287
▁creepy	-10288
▁hammered	-10289
▁lovingly	-10290
▁scribbled	-10291
▁respecting	-10292
▁Diana	-10293
▁Lo	-10294
Trust	-10295
abeth	-10296
▁Lady	-10297
▁Mild	-10298
▁jaws	-10299
▁whim	-10300
▁carts	-10301
▁bobbed	-10302
▁double	-10303
▁saxophone	-10304
Snow	-10305
▁jogger	-10306
▁mailing	-10307
▁Elizabeth	-10308
don	-10309
▁begs	-10310
▁patting	-10311
▁fare	-10312
▁prof	-10313
remely	-10314
▁Angie	-10315
▁Birds	-10316
▁bould	-10317
▁Melody	-10318
▁instant	-10319
▁terribly	-10320
.'"	-10321
acher	-10322
▁undo	-10323
▁braid	-10324
▁curves	-10325
▁trudged	-10326
▁godmother	-10327
▁Dis	-10328
▁appet	-10329
▁poles	-10330
▁Bethany	-10331
▁extremely	-10332
nis	-10333
▁pec	-10334
hoe	-10335
▁Hugo	-10336
▁prefer	-10337
▁friendâ	-10338
▁zippers	-10339
▁Cleaning	-10340
▁exchanged	-10341
▁wil	-10342
▁chees	-10343
▁misty	-10344
▁witches	-10345
▁accepting	-10346
▁independence	-10347
▁Int	-10348
▁Close	-10349
▁quizz	-10350
▁Much	-10351
▁limp	-10352
▁ruffled	-10353
▁missiles	-10354
▁oo	-10355
Mary	-10356
riet	-10357
▁Ernie	-10358
▁signal	-10359
▁charity	-10360
▁shields	-10361
▁whimper	-10362
▁juggling	-10363
▁stretchy	-10364
cup	-10365
▁pinec	-10366
▁spades	-10367
▁Cookies	-10368
▁harmful	-10369
▁unloaded	-10370
away	-10371
Wheee	-10372
▁zigzags	-10373
▁succeeding	-10374
hi	-10375
ico	-10376
ior	-10377
Shoo	-10378
etime	-10379
▁Percy	-10380
▁jumper	-10381
▁prison	-10382
▁escaping	-10383
▁sweeping	-10384
▁splitting	-10385
lock	-10386
Silly	-10387
friend	-10388
▁Africa	-10389
▁stares	-10390
▁wiggles	-10391
giving	-10392
▁chewy	-10393
▁clung	-10394
Sharing	-10395
▁birdies	-10396
▁somehow	-10397
▁captured	-10398
▁confu	-10399
▁Monica	-10400
▁Spirit	-10401
▁stomping	-10402
nds	-10403
uliar	-10404
▁roam	-10405
▁suns	-10406
solved	-10407
▁goods	-10408
▁peculiar	-10409
att	-10410
acul	-10411
▁complicated	-10412
▁py	-10413
Bird	-10414
▁Boom	-10415
▁wond	-10416
▁Manny	-10417
▁theyâ	-10418
▁tucks	-10419
▁events	-10420
▁strummed	-10421
▁invention	-10422
▁journeyed	-10423
lla	-10424
▁lens	-10425
▁Climb	-10426
▁carriage	-10427
▁lifetime	-10428
▁explanation	-10429
oes	-10430
▁dim	-10431
ddies	-10432
▁proceed	-10433
▁sharpen	-10434
▁lectures	-10435
▁motioned	-10436
▁fishermen	-10437
▁tul	-10438
▁taco	-10439
▁Animal	-10440
▁pendant	-10441
▁snuggles	-10442
▁favorites	-10443
irty	-10444
umph	-10445
▁remo	-10446
ichard	-10447
▁Jasper	-10448
▁buddies	-10449
▁strikes	-10450
▁mustaches	-10451
Got	-10452
Two	-10453
▁combs	-10454
▁flyer	-10455
▁guilt	-10456
▁melts	-10457
▁grains	-10458
▁compare	-10459
▁kindest	-10460
▁Brave	-10461
▁joyous	-10462
▁richer	-10463
ows	-10464
reck	-10465
▁West	-10466
▁Lilyâ	-10467
▁perch	-10468
▁views	-10469
▁protects	-10470
▁volcanoes	-10471
Hop	-10472
▁Mor	-10473
Climb	-10474
▁curve	-10475
▁gloom	-10476
▁Nellie	-10477
▁chicks	-10478
▁motions	-10479
Eww	-10480
vey	-10481
rope	-10482
▁Sister	-10483
▁requests	-10484
▁spelling	-10485
▁concentrated	-10486
upid	-10487
▁Afterward	-10488
▁panicking	-10489
▁raincoats	-10490
▁accidently	-10491
▁zig	-10492
▁craz	-10493
▁Strip	-10494
▁Maxine	-10495
▁Nathan	-10496
▁quizzes	-10497
▁droplets	-10498
▁sneakers	-10499
▁Erin	-10500
▁Jules	-10501
▁lobby	-10502
▁Dragon	-10503
▁wrinkly	-10504
Mmmm	-10505
▁wit	-10506
▁Peace	-10507
▁blush	-10508
▁scuttled	-10509
▁abilities	-10510
▁reassuring	-10511
▁quarrelling	-10512
oxy	-10513
Blue	-10514
imba	-10515
pled	-10516
▁rect	-10517
▁dries	-10518
▁subjects	-10519
▁wriggling	-10520
▁separating	-10521
▁chunk	-10522
▁Mister	-10523
▁defend	-10524
▁kneels	-10525
▁hopeless	-10526
▁birthdays	-10527
▁stretcher	-10528
More	-10529
▁Gia	-10530
œStop	-10531
▁Blink	-10532
▁Marty	-10533
▁destr	-10534
▁strict	-10535
▁appears	-10536
▁crosses	-10537
▁notices	-10538
▁concentrate	-10539
▁conversations	-10540
isty	-10541
Magic	-10542
▁Past	-10543
▁pail	-10544
▁Piper	-10545
▁Angela	-10546
▁bleeds	-10547
▁cables	-10548
▁report	-10549
▁posters	-10550
▁squashes	-10551
▁supportive	-10552
ald	-10553
sery	-10554
▁Nat	-10555
omers	-10556
unted	-10557
▁striped	-10558
war	-10559
▁orch	-10560
▁shades	-10561
▁grinning	-10562
▁shouldnâ	-10563
▁sleepover	-10564
areful	-10565
▁glimp	-10566
▁clover	-10567
▁flowed	-10568
▁Neither	-10569
▁Singing	-10570
▁waitress	-10571
▁wrappers	-10572
▁curved	-10573
▁dialed	-10574
▁hurrying	-10575
▁Stephanie	-10576
Co	-10577
tiv	-10578
stop	-10579
▁Anya	-10580
▁nursery	-10581
▁numbered	-10582
▁importantly	-10583
haps	-10584
ential	-10585
▁sealed	-10586
▁ladders	-10587
▁crunching	-10588
œB	-10589
▁mitt	-10590
▁Catty	-10591
▁bands	-10592
▁unfolded	-10593
▁strolling	-10594
▁moderation	-10595
Move	-10596
▁Pup	-10597
atted	-10598
▁North	-10599
▁captiv	-10600
▁fading	-10601
▁imagin	-10602
▁approval	-10603
▁stitched	-10604
'?"	-10605
Mark	-10606
œMama	-10607
▁banks	-10608
▁stems	-10609
▁juggle	-10610
▁detective	-10611
▁Simba	-10612
▁desire	-10613
▁warming	-10614
▁flippers	-10615
▁cigarette	-10616
▁tightrope	-10617
▁overflowing	-10618
rop	-10619
▁Di	-10620
iddy	-10621
▁rais	-10622
▁flakes	-10623
Whenever	-10624
ram	-10625
▁ec	-10626
▁Stu	-10627
▁Daisyâ	-10628
▁stripe	-10629
▁scooted	-10630
?,"	-10631
smart	-10632
▁Ding	-10633
▁Toni	-10634
coming	-10635
▁Juice	-10636
▁Shall	-10637
▁Should	-10638
▁playfully	-10639
ilst	-10640
Close	-10641
innam	-10642
▁dodge	-10643
innamon	-10644
▁Marcus	-10645
▁bruise	-10646
▁chugged	-10647
▁pickles	-10648
▁repairs	-10649
▁shuffled	-10650
ada	-10651
obot	-10652
▁cul	-10653
▁outer	-10654
▁fourth	-10655
▁photog	-10656
▁somers	-10657
▁squirt	-10658
▁grownups	-10659
▁proceeded	-10660
▁somersaul	-10661
net	-10662
phew	-10663
▁site	-10664
▁Spider	-10665
▁aisles	-10666
▁boulder	-10667
▁sandals	-10668
eyed	-10669
▁Ske	-10670
Thatâ	-10671
▁dazz	-10672
Shrink	-10673
▁inched	-10674
▁nephew	-10675
▁clucked	-10676
▁leaping	-10677
▁biscuits	-10678
▁grumbling	-10679
▁Music	-10680
▁lamps	-10681
berries	-10682
▁forced	-10683
▁rustled	-10684
▁farewell	-10685
▁contentedly	-10686
▁friendships	-10687
xie	-10688
▁spee	-10689
static	-10690
▁curls	-10691
▁boomed	-10692
▁thirst	-10693
▁announce	-10694
▁cinnamon	-10695
▁vitamins	-10696
▁Jade	-10697
▁newly	-10698
▁stump	-10699
▁seated	-10700
▁snatch	-10701
▁training	-10702
Cat	-10703
▁Tomâ	-10704
▁envy	-10705
▁weed	-10706
▁dodges	-10707
▁stalks	-10708
Dog	-10709
▁Gen	-10710
▁ups	-10711
helle	-10712
▁Barn	-10713
▁empt	-10714
▁rejo	-10715
▁Three	-10716
▁setup	-10717
▁culture	-10718
▁firewood	-10719
▁switches	-10720
œIs	-10721
▁fists	-10722
▁layer	-10723
▁giants	-10724
▁speech	-10725
▁Anything	-10726
Jim	-10727
▁tang	-10728
▁trails	-10729
rous	-10730
▁Goose	-10731
▁limits	-10732
▁lowers	-10733
▁sleeves	-10734
▁timidly	-10735
▁tiptoes	-10736
May	-10737
aved	-10738
oris	-10739
▁elder	-10740
▁rises	-10741
▁outing	-10742
▁command	-10743
▁Gradually	-10744
car	-10745
▁ogre	-10746
▁unsc	-10747
▁Small	-10748
▁loser	-10749
▁blossom	-10750
▁hammers	-10751
▁snipped	-10752
▁excellent	-10753
▁surrendering	-10754
Mar	-10755
bec	-10756
▁Crab	-10757
▁bled	-10758
▁Emmie	-10759
▁postc	-10760
▁salads	-10761
▁stunned	-10762
▁ecstatic	-10763
erris	-10764
vious	-10765
▁balc	-10766
istory	-10767
itters	-10768
▁Paige	-10769
▁cheesy	-10770
▁frames	-10771
▁triumph	-10772
▁stunning	-10773
▁inspected	-10774
▁hardworking	-10775
ume	-10776
igher	-10777
œDaddy	-10778
▁Janeâ	-10779
▁deeds	-10780
▁Skelly	-10781
▁begging	-10782
▁bobbing	-10783
▁fitting	-10784
▁paramed	-10785
▁thinner	-10786
▁fulfilled	-10787
œyou	-10788
▁Amaz	-10789
▁Land	-10790
▁jogs	-10791
▁nanny	-10792
▁cities	-10793
▁otherâ	-10794
▁Crystal	-10795
▁obstacle	-10796
▁wondrous	-10797
▁descended	-10798
Ann	-10799
œJust	-10800
▁bangs	-10801
▁loosen	-10802
▁combing	-10803
nderneath	-10804
▁Michelle	-10805
po	-10806
ute	-10807
▁Eat	-10808
▁witness	-10809
ylv	-10810
▁guid	-10811
ashing	-10812
▁Dizzy	-10813
▁tiara	-10814
▁behold	-10815
▁guidance	-10816
▁surprisingly	-10817
vo	-10818
abby	-10819
mill	-10820
▁Jem	-10821
▁Pol	-10822
aylee	-10823
▁Amen	-10824
▁doub	-10825
▁boast	-10826
▁Edward	-10827
▁tickly	-10828
▁Stretch	-10829
▁orchard	-10830
▁staircase	-10831
!,"	-10832
▁drags	-10833
▁exact	-10834
▁misbe	-10835
▁reader	-10836
▁guarded	-10837
▁targets	-10838
▁clothesline	-10839
aken	-10840
▁Bro	-10841
epeat	-10842
▁sele	-10843
▁Doing	-10844
▁cleare	-10845
▁partner	-10846
▁antennae	-10847
▁experiments	-10848
hab	-10849
▁None	-10850
▁Beary	-10851
▁Ginny	-10852
▁anxiously	-10853
▁Moe	-10854
▁cha	-10855
▁Bees	-10856
▁Burt	-10857
▁Theo	-10858
▁Bright	-10859
▁pounce	-10860
▁greater	-10861
▁cracking	-10862
▁pineapple	-10863
▁tablecloth	-10864
▁Sylv	-10865
▁Carlos	-10866
▁Mollie	-10867
▁ballet	-10868
▁resumed	-10869
▁wobbling	-10870
▁confusing	-10871
Alice	-10872
stack	-10873
▁Count	-10874
▁disob	-10875
isingly	-10876
▁Barney	-10877
▁cursed	-10878
▁pastor	-10879
▁squeal	-10880
▁Believe	-10881
▁options	-10882
▁skating	-10883
▁promising	-10884
▁shoreline	-10885
cies	-10886
▁snoo	-10887
▁salsa	-10888
▁smash	-10889
▁balcony	-10890
▁ironing	-10891
▁leopards	-10892
alia	-10893
▁Bel	-10894
▁gal	-10895
annah	-10896
▁Samâ	-10897
▁stray	-10898
▁tippy	-10899
▁barbec	-10900
▁wrists	-10901
▁arrives	-10902
▁roasted	-10903
▁stylish	-10904
▁acrobats	-10905
▁brighten	-10906
▁securely	-10907
▁whoo	-10908
aitlyn	-10909
▁Cloud	-10910
▁Stacy	-10911
▁sicker	-10912
▁outsmart	-10913
▁crust	-10914
▁turkeys	-10915
▁background	-10916
Say	-10917
▁unh	-10918
Whatâ	-10919
▁Hours	-10920
▁heated	-10921
▁sprung	-10922
▁Grandad	-10923
▁delaying	-10924
▁adventurer	-10925
▁emergencies	-10926
▁plow	-10927
▁Mason	-10928
▁vacuum	-10929
▁lawyers	-10930
▁flavours	-10931
dest	-10932
arked	-10933
▁kill	-10934
▁Louie	-10935
▁Prune	-10936
▁shimmer	-10937
▁replacing	-10938
▁captivated	-10939
▁toothpaste	-10940
▁Thanksgiving	-10941
▁woo	-10942
aries	-10943
▁Park	-10944
▁Barky	-10945
▁Cream	-10946
venture	-10947
▁detail	-10948
▁prices	-10949
▁pricked	-10950
▁releasing	-10951
wow	-10952
anky	-10953
▁fixes	-10954
▁fanciest	-10955
▁smoothie	-10956
Ble	-10957
pie	-10958
hoebe	-10959
▁honor	-10960
▁props	-10961
▁Harriet	-10962
▁Tuesdays	-10963
▁recovered	-10964
▁Surprisingly	-10965
wed	-10966
▁Carrot	-10967
iversity	-10968
▁barrels	-10969
▁folders	-10970
▁remains	-10971
▁glimmered	-10972
mon	-10973
▁tack	-10974
▁Bubble	-10975
▁Phoebe	-10976
▁yielding	-10977
▁cucumbers	-10978
▁tran	-10979
▁lately	-10980
▁collage	-10981
▁railing	-10982
▁records	-10983
▁destruction	-10984
ks	-10985
itive	-10986
▁smoky	-10987
▁Gertie	-10988
▁placing	-10989
▁praises	-10990
▁chann	-10991
▁outcome	-10992
▁cornfield	-10993
ruck	-10994
anked	-10995
▁Beat	-10996
▁plun	-10997
▁Mindy	-10998
indness	-10999
▁Juliet	-11000
▁skates	-11001
▁Stephen	-11002
Sl	-11003
althy	-11004
▁scan	-11005
▁Bones	-11006
▁Sugar	-11007
▁howling	-11008
▁mornings	-11009
▁squatted	-11010
▁flashlights	-11011
iant	-11012
Blech	-11013
▁Mill	-11014
▁urges	-11015
▁Alicia	-11016
▁Silver	-11017
▁Jackson	-11018
▁Melanie	-11019
asc	-11020
▁rasp	-11021
▁cords	-11022
▁ponyt	-11023
▁ducked	-11024
▁perked	-11025
▁springs	-11026
▁innocent	-11027
▁infection	-11028
▁slithering	-11029
▁earthquakes	-11030
▁foreshadowed	-11031
Ahh	-11032
Fly	-11033
Three	-11034
▁Barb	-11035
▁Joeâ	-11036
▁bills	-11037
▁blurry	-11038
▁bubbled	-11039
▁Mack	-11040
▁crooked	-11041
▁glimpse	-11042
▁shrimps	-11043
Eat	-11044
▁dizz	-11045
▁liar	-11046
▁Wiggles	-11047
▁whirled	-11048
▁appetite	-11049
▁carelessly	-11050
AS	-11051
▁Jesus	-11052
▁classes	-11053
▁pinches	-11054
▁haystack	-11055
oint	-11056
▁Dove	-11057
▁gobl	-11058
▁herd	-11059
▁advant	-11060
▁thereâ	-11061
coloured	-11062
eena	-11063
œJack	-11064
▁Debbie	-11065
▁Mollyâ	-11066
▁dirtier	-11067
▁gaining	-11068
▁snuggly	-11069
▁position	-11070
▁victorious	-11071
▁challenging	-11072
talk	-11073
▁tech	-11074
▁Bloom	-11075
▁Lacey	-11076
▁warns	-11077
▁involved	-11078
▁Intrigued	-11079
▁roofs	-11080
▁rattle	-11081
▁twitch	-11082
▁werenâ	-11083
▁quality	-11084
▁sweating	-11085
▁trumpets	-11086
With	-11087
▁Ari	-11088
▁Mars	-11089
▁Merry	-11090
▁blues	-11091
▁hobby	-11092
▁lunged	-11093
▁embraced	-11094
▁retrieved	-11095
▁selfishness	-11096
▁mid	-11097
grateful	-11098
▁tastier	-11099
▁useless	-11100
▁receiving	-11101
▁Bobbi	-11102
▁oblig	-11103
▁elbows	-11104
▁quiver	-11105
▁sawing	-11106
▁bruised	-11107
▁pistols	-11108
▁raisins	-11109
▁clutching	-11110
iti	-11111
raw	-11112
ilot	-11113
imber	-11114
▁Dawn	-11115
▁Plus	-11116
▁plum	-11117
▁fifty	-11118
▁rarely	-11119
▁Dancing	-11120
▁Helping	-11121
▁creaked	-11122
Pe	-11123
▁hey	-11124
loria	-11125
▁cloak	-11126
▁galax	-11127
▁screech	-11128
▁coolness	-11129
▁ladybugs	-11130
ooo	-11131
Cool	-11132
rays	-11133
▁Becca	-11134
▁grain	-11135
▁bullies	-11136
▁heaviest	-11137
life	-11138
than	-11139
unate	-11140
▁Whee	-11141
▁Wink	-11142
▁choke	-11143
▁frant	-11144
▁stead	-11145
▁Gloria	-11146
▁awaited	-11147
▁spotless	-11148
cel	-11149
tes	-11150
like	-11151
▁dadâ	-11152
▁kern	-11153
▁Marco	-11154
▁injury	-11155
▁motors	-11156
▁Promise	-11157
▁accessories	-11158
Sn	-11159
Ten	-11160
afe	-11161
acing	-11162
▁snails	-11163
▁squigg	-11164
▁endings	-11165
▁whirring	-11166
BC	-11167
Br	-11168
onk	-11169
▁Yay	-11170
œYour	-11171
▁Meow	-11172
▁sunk	-11173
▁beeps	-11174
▁slime	-11175
▁blinks	-11176
▁thirty	-11177
▁notebooks	-11178
▁skeletons	-11179
have	-11180
▁Isabel	-11181
▁feared	-11182
▁howled	-11183
▁starry	-11184
▁barbecue	-11185
▁summertime	-11186
acon	-11187
umbs	-11188
▁Agn	-11189
▁bust	-11190
alling	-11191
▁Pingu	-11192
▁fixer	-11193
▁bending	-11194
▁breadcr	-11195
▁sunburn	-11196
▁Beatrice	-11197
▁advantage	-11198
▁hurriedly	-11199
▁construction	-11200
run	-11201
▁Cody	-11202
▁Joel	-11203
▁clums	-11204
▁Buttons	-11205
▁obliged	-11206
▁screens	-11207
Phew	-11208
▁unn	-11209
hadow	-11210
▁silk	-11211
▁yelps	-11212
▁admitted	-11213
▁eyeshadow	-11214
▁broomstick	-11215
▁cleverness	-11216
▁ungrateful	-11217
▁embarrassment	-11218
cip	-11219
nny	-11220
▁ABC	-11221
▁ted	-11222
▁rent	-11223
▁viol	-11224
▁fired	-11225
▁sawed	-11226
Careful	-11227
welcome	-11228
▁Dinner	-11229
▁dragging	-11230
▁glinting	-11231
fect	-11232
oyal	-11233
tles	-11234
▁Cake	-11235
▁Club	-11236
▁radi	-11237
▁Dream	-11238
▁coast	-11239
▁glide	-11240
▁moles	-11241
▁Alfred	-11242
▁School	-11243
▁adjust	-11244
▁hooked	-11245
▁looped	-11246
▁walkie	-11247
▁inspect	-11248
▁gleaming	-11249
Fro	-11250
▁cy	-11251
loat	-11252
▁raw	-11253
eness	-11254
maker	-11255
▁risen	-11256
▁pointer	-11257
▁unscrew	-11258
▁homemade	-11259
EE	-11260
who	-11261
▁lace	-11262
▁Junior	-11263
▁afloat	-11264
▁sorrow	-11265
▁crashes	-11266
▁remaining	-11267
Congratulations	-11268
ooke	-11269
▁packet	-11270
▁handled	-11271
aculously	-11272
▁leftover	-11273
▁potential	-11274
▁suggesting	-11275
▁Lea	-11276
▁Happ	-11277
▁Wake	-11278
▁mini	-11279
▁spir	-11280
▁Jesse	-11281
▁Lance	-11282
▁scrunch	-11283
▁bandaged	-11284
▁Sami	-11285
▁Pizza	-11286
▁Brooke	-11287
▁Winnie	-11288
▁driven	-11289
▁teddies	-11290
▁Aly	-11291
▁Ethan	-11292
▁Fluff	-11293
▁swift	-11294
▁Spotty	-11295
▁sons	-11296
▁Annabel	-11297
▁Stripey	-11298
▁du	-11299
▁Hel	-11300
▁alb	-11301
▁surfer	-11302
▁clamber	-11303
▁princip	-11304
▁marveling	-11305
▁chattering	-11306
Wo	-11307
wh	-11308
?'.	-11309
▁gad	-11310
liest	-11311
▁Clar	-11312
▁Drop	-11313
▁wagons	-11314
▁rejoiced	-11315
▁breadcrumbs	-11316
Te	-11317
▁ic	-11318
Free	-11319
▁Jet	-11320
▁slams	-11321
▁Standing	-11322
▁Trees	-11323
▁silky	-11324
▁strut	-11325
▁limped	-11326
▁tossing	-11327
▁sniffling	-11328
aleb	-11329
robes	-11330
▁trous	-11331
▁mended	-11332
▁endless	-11333
▁erupted	-11334
▁grazing	-11335
▁tending	-11336
▁disobedient	-11337
▁Pir	-11338
▁pau	-11339
Being	-11340
▁Asked	-11341
▁plump	-11342
▁sunda	-11343
▁Nearby	-11344
▁cranky	-11345
▁wilted	-11346
▁luxurious	-11347
▁.	-11348
Her	-11349
oodle	-11350
▁Abbi	-11351
Butter	-11352
ushing	-11353
▁Hippy	-11354
Twinkle	-11355
▁Winter	-11356
▁bumble	-11357
▁Animals	-11358
▁fingert	-11359
▁crackling	-11360
▁preventing	-11361
mes	-11362
▁bon	-11363
▁dut	-11364
Found	-11365
▁Harold	-11366
▁eleven	-11367
▁fondly	-11368
▁chances	-11369
▁savored	-11370
▁greeting	-11371
▁trousers	-11372
ima	-11373
inn	-11374
▁Tabby	-11375
▁magpie	-11376
▁combined	-11377
▁imaginative	-11378
▁Him	-11379
▁Tippy	-11380
▁murky	-11381
▁private	-11382
▁whizzed	-11383
▁flipping	-11384
▁popsicles	-11385
ping	-11386
▁Trev	-11387
▁oink	-11388
▁grownup	-11389
Squ	-11390
Looks	-11391
armed	-11392
▁plus	-11393
Freeze	-11394
▁assured	-11395
▁mustard	-11396
▁creaking	-11397
▁principal	-11398
▁Eli	-11399
▁Owen	-11400
▁Agnes	-11401
▁goblin	-11402
▁impact	-11403
▁grounded	-11404
idy	-11405
dled	-11406
gling	-11407
upert	-11408
▁Seth	-11409
▁Worm	-11410
ophies	-11411
▁sinks	-11412
▁Piggie	-11413
▁affect	-11414
▁streak	-11415
▁Writing	-11416
▁similar	-11417
▁Stealing	-11418
▁drifting	-11419
▁colouring	-11420
▁buds	-11421
beying	-11422
▁amuse	-11423
▁cranes	-11424
▁Melinda	-11425
▁trimmed	-11426
▁Madeline	-11427
▁gestures	-11428
tw	-11429
ula	-11430
stret	-11431
▁Lara	-11432
▁Puff	-11433
▁album	-11434
▁reins	-11435
▁speeds	-11436
▁quitting	-11437
▁removing	-11438
Grab	-11439
▁Gor	-11440
Emily	-11441
▁mums	-11442
▁Aaron	-11443
▁Donna	-11444
▁Trevor	-11445
▁booming	-11446
▁messing	-11447
▁wasteful	-11448
▁Butterfly	-11449
▁tiredness	-11450
Im	-11451
rant	-11452
▁pes	-11453
table	-11454
▁oohed	-11455
▁Cherry	-11456
▁explos	-11457
▁Whistle	-11458
▁existed	-11459
▁trophies	-11460
▁nightlight	-11461
gent	-11462
▁rumm	-11463
▁cawed	-11464
▁Sylvia	-11465
▁stalls	-11466
▁session	-11467
▁whining	-11468
olo	-11469
aced	-11470
arium	-11471
▁Mika	-11472
▁sips	-11473
▁calms	-11474
▁snore	-11475
▁replies	-11476
awk	-11477
Poor	-11478
▁Cora	-11479
riosity	-11480
▁Disapp	-11481
▁sucked	-11482
▁uniting	-11483
▁resolved	-11484
Brrr	-11485
▁adopt	-11486
▁chaos	-11487
▁paste	-11488
▁unzip	-11489
brushes	-11490
▁liking	-11491
▁cartwhe	-11492
▁locking	-11493
▁paddles	-11494
▁passage	-11495
▁rhythms	-11496
▁clam	-11497
ictory	-11498
▁pluck	-11499
▁Samuel	-11500
▁copies	-11501
▁Pickles	-11502
▁forming	-11503
▁apartment	-11504
▁resources	-11505
▁frantically	-11506
mar	-11507
nut	-11508
ikki	-11509
œBye	-11510
▁Ban	-11511
▁Bugs	-11512
▁Half	-11513
▁Hipp	-11514
ancing	-11515
▁adored	-11516
▁Sweetie	-11517
▁coaster	-11518
▁nuzzles	-11519
▁protest	-11520
▁unlocks	-11521
▁sounding	-11522
▁achieving	-11523
▁amusement	-11524
▁recordings	-11525
œL	-11526
ettle	-11527
inter	-11528
▁Lynn	-11529
▁Miaâ	-11530
handed	-11531
▁glory	-11532
▁saves	-11533
▁effect	-11534
▁shaker	-11535
▁clearer	-11536
▁squeaks	-11537
▁storing	-11538
▁foreshadowing	-11539
mind	-11540
arrot	-11541
▁lolly	-11542
▁huffed	-11543
▁crumble	-11544
▁cutters	-11545
▁runners	-11546
▁grandparent	-11547
OP	-11548
▁sul	-11549
onight	-11550
▁gnome	-11551
▁chalks	-11552
▁scurry	-11553
▁spoilt	-11554
▁emptied	-11555
▁spreads	-11556
▁mastered	-11557
▁stations	-11558
aj	-11559
ifted	-11560
Johnny	-11561
iraffe	-11562
▁cocked	-11563
▁impatiently	-11564
!'"	-11565
pole	-11566
organ	-11567
▁Maxâ	-11568
▁dism	-11569
ointed	-11570
▁Biscuit	-11571
▁Stripes	-11572
▁messier	-11573
▁Learning	-11574
▁measures	-11575
▁squealing	-11576
ns	-11577
.''	-11578
eers	-11579
▁Ped	-11580
▁rev	-11581
▁Pole	-11582
▁crum	-11583
▁smoot	-11584
▁gobble	-11585
▁stumbling	-11586
itz	-11587
pill	-11588
▁High	-11589
▁rosy	-11590
edience	-11591
▁unwrap	-11592
▁closest	-11593
▁hungrier	-11594
▁squeaking	-11595
rex	-11596
knob	-11597
▁jig	-11598
horse	-11599
▁Coal	-11600
▁Tooth	-11601
▁Wonder	-11602
▁hairsty	-11603
▁princes	-11604
▁regretful	-11605
bel	-11606
▁Eng	-11607
▁laz	-11608
▁Lana	-11609
everse	-11610
▁Silly	-11611
▁dials	-11612
▁doorknob	-11613
▁fastened	-11614
▁hyd	-11615
plash	-11616
ok	-11617
boos	-11618
▁Caleb	-11619
▁greed	-11620
▁Lillie	-11621
▁cupped	-11622
▁festiv	-11623
▁opportun	-11624
des	-11625
▁ah	-11626
Tell	-11627
onny	-11628
▁Tad	-11629
▁dil	-11630
▁pea	-11631
tingu	-11632
œThey	-11633
▁Lacy	-11634
▁Soup	-11635
▁unpl	-11636
imming	-11637
▁Drink	-11638
▁diver	-11639
▁donate	-11640
▁fairly	-11641
▁itches	-11642
▁extingu	-11643
▁opportunities	-11644
AP	-11645
Sammy	-11646
▁Sale	-11647
nowing	-11648
▁Henny	-11649
▁Pingo	-11650
▁Gently	-11651
▁belief	-11652
▁grounds	-11653
▁dazzling	-11654
▁whooshing	-11655
ecess	-11656
▁Fuzz	-11657
▁brake	-11658
▁mango	-11659
▁climber	-11660
▁vendors	-11661
▁clambered	-11662
▁struggles	-11663
▁lighthouse	-11664
▁Ask	-11665
▁alp	-11666
uacky	-11667
▁jacks	-11668
▁croaking	-11669
▁figuring	-11670
▁sledding	-11671
▁dishonest	-11672
▁compliments	-11673
Bear	-11674
asey	-11675
beam	-11676
▁Seb	-11677
▁Pain	-11678
▁gumb	-11679
▁Fanny	-11680
▁Smiling	-11681
▁catcher	-11682
▁gumball	-11683
stretched	-11684
▁Isabelle	-11685
▁unnecess	-11686
▁sharpened	-11687
▁thoughtfulness	-11688
bag	-11689
oll	-11690
▁nin	-11691
Greet	-11692
▁erra	-11693
▁Sheila	-11694
▁banner	-11695
▁shaken	-11696
aterpill	-11697
▁blended	-11698
▁outdoor	-11699
▁Grandmother	-11700
▁owe	-11701
▁dial	-11702
▁Archie	-11703
▁feeder	-11704
▁deepest	-11705
▁unstuck	-11706
▁meetings	-11707
▁described	-11708
▁thousands	-11709
▁paramedics	-11710
▁skateboard	-11711
Jake	-11712
elax	-11713
eras	-11714
▁Pot	-11715
idget	-11716
stalk	-11717
▁donut	-11718
▁pinecone	-11719
▁outstretched	-11720
ASH	-11721
beat	-11722
zzly	-11723
▁goalie	-11724
▁skulls	-11725
▁snorts	-11726
▁Officer	-11727
▁crumpled	-11728
▁traveler	-11729
œSometimes	-11730
▁Curiosity	-11731
rimp	-11732
▁sug	-11733
▁Bean	-11734
▁Bobâ	-11735
▁Herb	-11736
▁heed	-11737
▁zone	-11738
llowed	-11739
▁Honest	-11740
▁superp	-11741
▁unsafe	-11742
▁whilst	-11743
▁blessings	-11744
▁rectangle	-11745
ori	-11746
▁Celia	-11747
▁Chewy	-11748
▁dilig	-11749
▁padlock	-11750
▁rattling	-11751
▁secretly	-11752
▁sprinted	-11753
▁Aid	-11754
▁Bib	-11755
▁Mei	-11756
▁zag	-11757
Catch	-11758
▁Claw	-11759
▁Gaby	-11760
▁Must	-11761
▁Cookie	-11762
▁jingle	-11763
▁fingertips	-11764
▁comfortably	-11765
Per	-11766
irls	-11767
▁bins	-11768
▁Boris	-11769
▁Giant	-11770
▁Speed	-11771
▁Tracy	-11772
▁layed	-11773
▁Number	-11774
▁mommyâ	-11775
▁sundae	-11776
▁normally	-11777
▁unnecessary	-11778
cted	-11779
▁cla	-11780
Drink	-11781
spass	-11782
venge	-11783
▁Work	-11784
▁mooing	-11785
▁slurped	-11786
Surrender	-11787
▁blessing	-11788
▁storybook	-11789
rain	-11790
toed	-11791
usie	-11792
▁vows	-11793
flower	-11794
▁ridden	-11795
▁runway	-11796
▁kernels	-11797
▁privacy	-11798
▁waddling	-11799
▁Jed	-11800
eggie	-11801
verse	-11802
▁Bell	-11803
▁Scar	-11804
master	-11805
▁demon	-11806
▁moist	-11807
▁react	-11808
▁tacos	-11809
▁Walter	-11810
▁bedside	-11811
brina	-11812
▁Hero	-11813
▁Pine	-11814
▁hint	-11815
▁Sissy	-11816
▁Socky	-11817
▁coiled	-11818
▁diaper	-11819
▁Sabrina	-11820
▁revenge	-11821
▁sipping	-11822
▁critters	-11823
▁childhood	-11824
▁Wednesdays	-11825
▁Disappointed	-11826
hop	-11827
▁Str	-11828
orget	-11829
▁cock	-11830
▁Lying	-11831
▁tangy	-11832
▁dearly	-11833
▁echoing	-11834
▁postcard	-11835
▁hamburger	-11836
▁horrified	-11837
▁mailboxes	-11838
▁recommending	-11839
Mimi	-11840
▁Beef	-11841
▁Great	-11842
▁chant	-11843
▁spine	-11844
▁daddies	-11845
▁jealousy	-11846
▁trapping	-11847
▁dandelion	-11848
▁teaspoons	-11849
▁protective	-11850
ni	-11851
▁Mal	-11852
▁main	-11853
inning	-11854
▁posts	-11855
▁sevent	-11856
▁yanked	-11857
▁cameras	-11858
▁scaredy	-11859
▁sunsets	-11860
▁arriving	-11861
▁cabinets	-11862
▁hopefully	-11863
▁cigarettes	-11864
Iâ	-11865
ta	-11866
Caw	-11867
▁Cam	-11868
▁Eag	-11869
▁ins	-11870
▁Juan	-11871
▁Pedro	-11872
iscilla	-11873
▁screec	-11874
▁sugary	-11875
▁supper	-11876
▁parades	-11877
▁potions	-11878
olk	-11879
▁Bre	-11880
▁Hot	-11881
▁Navy	-11882
▁brag	-11883
talkie	-11884
▁Money	-11885
▁brats	-11886
▁Sallyâ	-11887
▁prized	-11888
▁harshly	-11889
▁sheepish	-11890
▁Priscilla	-11891
▁interests	-11892
!''	-11893
ule	-11894
lled	-11895
zoom	-11896
▁New	-11897
erson	-11898
stone	-11899
▁Salt	-11900
▁fate	-11901
phones	-11902
▁Match	-11903
▁Crocod	-11904
▁ladies	-11905
▁talons	-11906
▁volunt	-11907
▁sighing	-11908
▁stubbed	-11909
▁demonstr	-11910
▁shiniest	-11911
▁unforget	-11912
▁overnight	-11913
▁squawking	-11914
oses	-11915
vere	-11916
▁cit	-11917
▁dice	-11918
▁dong	-11919
▁territ	-11920
▁unwell	-11921
▁worlds	-11922
▁capable	-11923
▁conquer	-11924
▁relation	-11925
▁preferred	-11926
▁measurements	-11927
ew	-11928
Push	-11929
habet	-11930
▁Cott	-11931
▁Loop	-11932
▁doubt	-11933
▁tilts	-11934
Greetings	-11935
▁ponytail	-11936
▁sentence	-11937
▁grumpiness	-11938
▁unforgettable	-11939
haw	-11940
▁fulf	-11941
▁rash	-11942
▁boost	-11943
▁brief	-11944
▁mower	-11945
▁wands	-11946
▁surfed	-11947
Children	-11948
▁flicker	-11949
▁matchbox	-11950
▁spitting	-11951
▁bathrobes	-11952
▁Bald	-11953
▁mumâ	-11954
▁Flying	-11955
▁Tigger	-11956
▁longed	-11957
▁flopped	-11958
▁Patience	-11959
▁Everytime	-11960
▁insistent	-11961
▁thankfully	-11962
mail	-11963
▁Ind	-11964
▁due	-11965
▁Louis	-11966
▁Think	-11967
▁Dennis	-11968
▁excuse	-11969
▁chugging	-11970
▁survived	-11971
▁Goodnight	-11972
zo	-11973
Even	-11974
▁yay	-11975
enses	-11976
Cheese	-11977
iginal	-11978
▁blind	-11979
▁Philip	-11980
▁wildly	-11981
▁channel	-11982
▁alphabet	-11983
▁cucumber	-11984
▁includes	-11985
▁combination	-11986
owner	-11987
▁wasp	-11988
▁Yummy	-11989
▁maths	-11990
▁serves	-11991
▁tumble	-11992
▁hesitantly	-11993
ssssssssssssssss	-11994
Bobo	-11995
fying	-11996
▁Prun	-11997
▁summ	-11998
▁Biggy	-11999
▁cents	-12000
▁hiked	-12001
▁Making	-12002
▁prepar	-12003
▁terror	-12004
▁uneasy	-12005
▁Scarlet	-12006
▁shaving	-12007
▁thrilling	-12008
True	-12009
▁Dara	-12010
▁tiles	-12011
▁trace	-12012
▁ponder	-12013
▁critter	-12014
▁demands	-12015
▁littlest	-12016
▁swingset	-12017
iko	-12018
stream	-12019
▁Georg	-12020
▁Lucie	-12021
▁benef	-12022
▁mitts	-12023
▁snowed	-12024
▁playmate	-12025
▁Adventure	-12026
▁assistant	-12027
▁dizziness	-12028
affy	-12029
▁Col	-12030
▁Wood	-12031
▁Apple	-12032
▁pouts	-12033
▁remark	-12034
▁Heather	-12035
▁gadgets	-12036
▁wetness	-12037
▁fighters	-12038
▁steadily	-12039
▁attacking	-12040
Want	-12041
▁Clown	-12042
▁Hippo	-12043
▁equal	-12044
▁roles	-12045
▁spect	-12046
▁stomps	-12047
▁crackle	-12048
▁unzipped	-12049
▁forgetful	-12050
▁territory	-12051
▁SN	-12052
iped	-12053
Bunny	-12054
▁Bibi	-12055
▁dash	-12056
▁Guard	-12057
▁Cassie	-12058
▁tidier	-12059
▁unlucky	-12060
▁valuing	-12061
▁Thinking	-12062
▁explosion	-12063
roy	-12064
▁Cleo	-12065
▁frol	-12066
▁grave	-12067
▁shove	-12068
▁Faster	-12069
▁Timmyâ	-12070
▁dismay	-12071
▁droopy	-12072
▁Flowers	-12073
▁tighten	-12074
▁faithful	-12075
▁poisoned	-12076
▁toughest	-12077
▁beanstalk	-12078
raph	-12079
▁lat	-12080
▁loss	-12081
▁vari	-12082
▁Laila	-12083
▁ouchy	-12084
▁drummer	-12085
▁feature	-12086
Sw	-12087
▁jay	-12088
spect	-12089
▁halo	-12090
œhello	-12091
▁Wanda	-12092
▁greens	-12093
▁therap	-12094
▁someplace	-12095
▁disturbance	-12096
Grow	-12097
erie	-12098
inic	-12099
▁Sha	-12100
enter	-12101
▁oint	-12102
ferent	-12103
▁Shell	-12104
▁citiz	-12105
▁steaks	-12106
▁slippers	-12107
▁pedalling	-12108
▁replacement	-12109
ga	-12110
▁bay	-12111
▁March	-12112
▁Truck	-12113
▁pawed	-12114
reverse	-12115
▁retrieve	-12116
▁headphones	-12117
▁Macy	-12118
▁quen	-12119
▁Lions	-12120
▁decre	-12121
▁heater	-12122
▁snatches	-12123
▁stitching	-12124
ami	-12125
zes	-12126
nness	-12127
freeze	-12128
▁Wanna	-12129
▁pesky	-12130
▁beaten	-12131
ifferent	-12132
▁clicking	-12133
▁attracted	-12134
▁scribbles	-12135
Del	-12136
gery	-12137
ills	-12138
▁tad	-12139
Young	-12140
pilot	-12141
▁Sari	-12142
▁flam	-12143
▁Achoo	-12144
▁Twist	-12145
▁draped	-12146
▁spatul	-12147
▁volume	-12148
rrrrrrrr	-12149
œAlright	-12150
▁Mustache	-12151
▁cactuses	-12152
▁ointment	-12153
▁register	-12154
▁windmill	-12155
▁War	-12156
ament	-12157
idered	-12158
▁China	-12159
▁tapes	-12160
▁Oxygen	-12161
▁archer	-12162
▁chests	-12163
▁unison	-12164
niversity	-12165
▁calmness	-12166
▁floaties	-12167
▁everytime	-12168
▁farmhouse	-12169
▁screeched	-12170
acam	-12171
irds	-12172
▁Four	-12173
▁Mitch	-12174
▁Petal	-12175
acamole	-12176
▁sizzle	-12177
▁ignores	-12178
Pr	-12179
▁Dare	-12180
▁Dogs	-12181
▁ponds	-12182
▁appoint	-12183
▁licenses	-12184
▁appearing	-12185
▁permitting	-12186
bang	-12187
iffy	-12188
▁Bes	-12189
about	-12190
aging	-12191
▁Loyal	-12192
▁wilder	-12193
▁Miranda	-12194
▁keyboard	-12195
▁gleefully	-12196
▁reflecting	-12197
dles	-12198
▁Fle	-12199
▁Fun	-12200
▁pry	-12201
Chirp	-12202
▁Dale	-12203
▁crad	-12204
▁wavy	-12205
astian	-12206
▁Crane	-12207
▁Diane	-12208
▁guiding	-12209
▁jiggled	-12210
▁shyness	-12211
▁spatula	-12212
▁surfers	-12213
▁tougher	-12214
▁displays	-12215
▁warriors	-12216
▁guacamole	-12217
tre	-12218
ottie	-12219
▁Sail	-12220
▁cann	-12221
lderly	-12222
▁bacon	-12223
▁cacti	-12224
▁vases	-12225
ornness	-12226
▁latest	-12227
▁mostly	-12228
▁chuckle	-12229
▁scoring	-12230
▁painters	-12231
▁Sebastian	-12232
▁reindeers	-12233
AA	-12234
Pass	-12235
aris	-12236
▁Dodo	-12237
▁imit	-12238
▁pits	-12239
athing	-12240
▁swell	-12241
retruck	-12242
▁Lastly	-12243
▁coughs	-12244
▁tackle	-12245
▁wriggle	-12246
▁entertain	-12247
▁gardeners	-12248
▁propeller	-12249
As	-12250
ji	-12251
two	-12252
Peter	-12253
œWhen	-12254
▁Mail	-12255
▁foss	-12256
▁lave	-12257
▁phra	-12258
▁pure	-12259
▁Bessy	-12260
▁Misty	-12261
▁Nikki	-12262
▁dates	-12263
▁surge	-12264
▁option	-12265
▁smarts	-12266
▁insists	-12267
▁refuses	-12268
▁lavender	-12269
▁wildlife	-12270
▁festivals	-12271
▁obedience	-12272
woo	-12273
▁Pad	-12274
Pizza	-12275
▁Best	-12276
▁SNAP	-12277
▁pier	-12278
▁swer	-12279
▁unra	-12280
iration	-12281
▁Around	-12282
▁Connie	-12283
▁Trixie	-12284
▁razors	-12285
▁Scruffy	-12286
▁carpets	-12287
▁Climbing	-12288
▁bumblebee	-12289
▁firetruck	-12290
▁somersaults	-12291
Five	-12292
▁Sheep	-12293
▁glues	-12294
▁treet	-12295
▁buzzes	-12296
▁hooted	-12297
▁pruning	-12298
▁strutted	-12299
▁photograp	-12300
▁stubbornness	-12301
hot	-12302
œAh	-12303
Lola	-12304
etti	-12305
▁bid	-12306
▁ruby	-12307
▁Judge	-12308
▁Trina	-12309
▁overc	-12310
▁habits	-12311
▁flicked	-12312
▁partied	-12313
▁pasture	-12314
▁sibling	-12315
▁wheeled	-12316
▁breathes	-12317
▁Miraculously	-12318
En	-12319
yla	-12320
isky	-12321
izmo	-12322
▁unb	-12323
▁prey	-12324
People	-12325
▁areas	-12326
▁taxis	-12327
▁newest	-12328
▁washer	-12329
▁rounded	-12330
▁surgery	-12331
▁sniffles	-12332
▁beekeeper	-12333
▁zigzagging	-12334
',"	-12335
Over	-12336
arty	-12337
▁laps	-12338
▁loaf	-12339
▁beams	-12340
▁death	-12341
▁grade	-12342
▁packs	-12343
▁Bumble	-12344
▁clinic	-12345
▁digger	-12346
▁Moments	-12347
▁collars	-12348
▁grasped	-12349
▁product	-12350
▁stroking	-12351
▁Caterpill	-12352
At	-12353
Play	-12354
orks	-12355
sure	-12356
essor	-12357
œWhoâ	-12358
▁Biff	-12359
▁pang	-12360
▁rung	-12361
lessly	-12362
▁bearâ	-12363
▁Having	-12364
▁Georgie	-12365
▁peopleâ	-12366
▁swished	-12367
▁variety	-12368
▁sprouted	-12369
▁arranging	-12370
▁remarkable	-12371
▁sprinkling	-12372
antic	-12373
umbly	-12374
▁Call	-12375
▁toot	-12376
▁basil	-12377
▁puffy	-12378
rinkles	-12379
▁scraps	-12380
▁spelled	-12381
▁threats	-12382
▁bustling	-12383
▁confetti	-12384
▁simplest	-12385
eluctantly	-12386
▁vanishing	-12387
▁considered	-12388
▁collections	-12389
▁ko	-12390
pair	-12391
Bella	-12392
erest	-12393
there	-12394
▁icic	-12395
▁Gizmo	-12396
▁Grump	-12397
▁Moley	-12398
▁repay	-12399
▁mopping	-12400
▁mothers	-12401
▁needing	-12402
▁punched	-12403
▁coconuts	-12404
▁seahorse	-12405
▁recognised	-12406
▁ki	-12407
Ella	-12408
ulty	-12409
▁Cut	-12410
cling	-12411
illip	-12412
belief	-12413
▁torch	-12414
▁kettle	-12415
▁bandaid	-12416
▁fulfill	-12417
▁pathway	-12418
▁sunbeam	-12419
▁muttered	-12420
▁Ce	-12421
Love	-12422
Toby	-12423
▁aqu	-12424
▁poo	-12425
▁Hunt	-12426
▁fres	-12427
▁garl	-12428
▁moan	-12429
▁plea	-12430
▁Genie	-12431
▁Muffy	-12432
▁Spicy	-12433
▁outrun	-12434
▁Jellyfish	-12435
▁persisted	-12436
▁helpfulness	-12437
azel	-12438
pher	-12439
▁Mond	-12440
innied	-12441
▁Comet	-12442
▁dares	-12443
▁flitting	-12444
▁goldfish	-12445
▁whinnied	-12446
▁encounter	-12447
▁appointment	-12448
Bra	-12449
▁En	-12450
▁Heâ	-12451
▁jer	-12452
imate	-12453
▁gown	-12454
▁hula	-12455
▁Hazel	-12456
▁dying	-12457
▁slaps	-12458
▁Jemima	-12459
▁froggy	-12460
▁tailor	-12461
▁Phillip	-12462
▁fetches	-12463
▁twinkly	-12464
▁yellows	-12465
▁Chocolate	-12466
Sir	-12467
▁Na	-12468
Four	-12469
irew	-12470
rors	-12471
▁Ter	-12472
ictor	-12473
ippee	-12474
▁Tuck	-12475
unning	-12476
▁Blake	-12477
▁menus	-12478
certain	-12479
▁yummier	-12480
▁craziest	-12481
▁Wor	-12482
shake	-12483
▁pred	-12484
œThese	-12485
▁tingly	-12486
▁crafted	-12487
▁grunted	-12488
▁agreeing	-12489
▁markings	-12490
▁ticklish	-12491
▁whizzing	-12492
Donâ	-12493
▁gig	-12494
▁Lyla	-12495
Nobody	-12496
▁Micky	-12497
▁eater	-12498
▁weave	-12499
▁Friday	-12500
▁duckie	-12501
▁arrival	-12502
▁grandad	-12503
▁scrapes	-12504
▁uncover	-12505
▁wonderland	-12506
▁Mop	-12507
ander	-12508
▁Flex	-12509
▁Toot	-12510
▁Brand	-12511
▁buyer	-12512
verance	-12513
▁bullets	-12514
▁peeling	-12515
▁collapse	-12516
▁dangling	-12517
▁tweeting	-12518
▁disbelief	-12519
▁uncertain	-12520
▁zigzagged	-12521
œHe	-12522
▁Jessy	-12523
▁curse	-12524
▁pucker	-12525
▁teases	-12526
▁comment	-12527
▁luckier	-12528
▁cultures	-12529
▁villages	-12530
▁carpenter	-12531
▁tradition	-12532
▁hamburgers	-12533
omi	-12534
auce	-12535
izer	-12536
▁cav	-12537
icity	-12538
tract	-12539
▁ABCs	-12540
▁poll	-12541
▁based	-12542
▁blend	-12543
▁forces	-12544
▁pumped	-12545
kerchief	-12546
▁Jeffrey	-12547
▁rowboat	-12548
▁trained	-12549
▁flamingo	-12550
▁tinkling	-12551
▁perseverance	-12552
▁Tip	-12553
▁dun	-12554
▁kil	-12555
Susie	-12556
ifteen	-12557
▁Freck	-12558
▁Higher	-12559
▁bullet	-12560
▁Giraffe	-12561
▁applied	-12562
▁divided	-12563
▁motherâ	-12564
▁handfuls	-12565
▁stressed	-12566
▁approaching	-12567
▁handkerchief	-12568
eg	-12569
arr	-12570
apes	-12571
▁Dor	-12572
▁Deer	-12573
▁diet	-12574
▁pest	-12575
ragile	-12576
▁battles	-12577
▁juggled	-12578
▁Sprinkles	-12579
▁gentleman	-12580
▁therapist	-12581
▁roundabout	-12582
Aww	-12583
tie	-12584
Miss	-12585
œTom	-12586
▁Nic	-12587
▁amb	-12588
irley	-12589
ouble	-12590
▁Bull	-12591
▁rins	-12592
ashion	-12593
▁Meena	-12594
▁bendy	-12595
▁forty	-12596
▁minty	-12597
▁wisest	-12598
▁familyâ	-12599
▁toddled	-12600
▁Butterflies	-12601
Gl	-12602
arch	-12603
▁unc	-12604
▁Marc	-12605
▁coax	-12606
▁smir	-12607
▁Brady	-12608
▁Lilah	-12609
▁Puffy	-12610
Imagine	-12611
▁closets	-12612
▁spinach	-12613
▁scribble	-12614
▁teammates	-12615
▁recognizing	-12616
▁announcement	-12617
haved	-12618
▁gaps	-12619
▁inqu	-12620
▁thaw	-12621
▁feeds	-12622
▁nibbles	-12623
▁incident	-12624
▁suitable	-12625
▁eagerness	-12626
œYum	-12627
▁Hay	-12628
▁Syd	-12629
▁arc	-12630
▁coz	-12631
▁neg	-12632
▁Milk	-12633
▁chug	-12634
▁Aiden	-12635
▁canes	-12636
▁Danger	-12637
▁flutes	-12638
▁golfer	-12639
▁losers	-12640
▁syring	-12641
▁Shirley	-12642
▁pyjamas	-12643
▁Felicity	-12644
▁trespass	-12645
▁continues	-12646
▁difficulty	-12647
▁sheepishly	-12648
▁photographer	-12649
œT	-12650
ixie	-12651
otcha	-12652
▁Addy	-12653
▁Waff	-12654
▁Bears	-12655
▁fewer	-12656
▁moose	-12657
▁Monday	-12658
▁Shrimp	-12659
▁English	-12660
specially	-12661
▁Amazingly	-12662
Ho	-12663
NO	-12664
lie	-12665
ivid	-12666
▁adj	-12667
▁sis	-12668
▁Aren	-12669
▁Cole	-12670
▁Casey	-12671
▁const	-12672
▁flush	-12673
▁picky	-12674
▁strap	-12675
▁rounds	-12676
▁waddle	-12677
▁compost	-12678
▁produce	-12679
▁weaving	-12680
▁engineer	-12681
▁snarling	-12682
▁diligently	-12683
▁personality	-12684
eee	-12685
fed	-12686
isha	-12687
▁Mig	-12688
Grace	-12689
ively	-12690
ivers	-12691
▁sobs	-12692
▁Leila	-12693
▁Lemon	-12694
▁leafy	-12695
▁storyt	-12696
▁Dorothy	-12697
▁directly	-12698
Sm	-12699
Mon	-12700
▁Lil	-12701
▁Sat	-12702
▁Wild	-12703
▁chief	-12704
inosaur	-12705
▁Sharon	-12706
▁safest	-12707
▁watery	-12708
▁bundled	-12709
▁greener	-12710
▁shooter	-12711
▁syringe	-12712
▁aquarium	-12713
▁quickest	-12714
▁splinter	-12715
Ele	-12716
▁Dolp	-12717
▁dayâ	-12718
▁moss	-12719
▁Benji	-12720
▁award	-12721
▁rhyme	-12722
▁finest	-12723
▁reeled	-12724
▁transp	-12725
▁Hearing	-12726
▁scarier	-12727
▁adjusted	-12728
▁mermaids	-12729
▁profession	-12730
▁accomplishments	-12731
ius	-12732
pon	-12733
rina	-12734
œDid	-12735
œOne	-12736
three	-12737
pitched	-12738
▁Greeny	-12739
▁cheery	-12740
▁fruity	-12741
▁trades	-12742
▁whirred	-12743
▁Broccoli	-12744
▁citizens	-12745
▁distress	-12746
▁perspect	-12747
▁villains	-12748
▁fortunate	-12749
œD	-12750
EEP	-12751
care	-12752
▁rugs	-12753
Stupid	-12754
alities	-12755
▁entert	-12756
▁erased	-12757
▁artists	-12758
▁bleated	-12759
▁launched	-12760
▁underest	-12761
▁woodland	-12762
▁silverware	-12763
▁entertained	-12764
Fr	-12765
œW	-12766
'!"	-12767
yum	-12768
zed	-12769
anas	-12770
▁dew	-12771
bbies	-12772
smith	-12773
acular	-12774
iously	-12775
▁Clover	-12776
▁judged	-12777
▁errands	-12778
▁gigantic	-12779
ham	-12780
rite	-12781
ounds	-12782
▁Elli	-12783
▁aims	-12784
▁recy	-12785
▁crows	-12786
▁Coffee	-12787
▁meaner	-12788
▁motorb	-12789
▁bonfire	-12790
▁spectacular	-12791
aser	-12792
oons	-12793
wear	-12794
print	-12795
Gotcha	-12796
minded	-12797
▁Smiley	-12798
▁Woolly	-12799
▁Belinda	-12800
▁Halfway	-12801
▁duckies	-12802
▁fifteen	-12803
▁pounded	-12804
▁octopuses	-12805
ugs	-12806
▁oar	-12807
▁var	-12808
▁vig	-12809
check	-12810
▁polit	-12811
covered	-12812
▁evenly	-12813
▁tulips	-12814
▁cockpit	-12815
▁Somewhere	-12816
▁clipboard	-12817
▁nighttime	-12818
▁whimpering	-12819
▁restaurants	-12820
OA	-12821
Stir	-12822
▁Lego	-12823
▁cowg	-12824
▁Glass	-12825
▁Peach	-12826
▁inser	-12827
▁latch	-12828
▁History	-12829
▁savoring	-12830
▁sideways	-12831
▁flickered	-12832
▁unscrewed	-12833
▁blacksmith	-12834
▁daydreaming	-12835
sn	-12836
top	-12837
Boom	-12838
essa	-12839
gies	-12840
▁Bud	-12841
Buddy	-12842
Snowy	-12843
▁Flap	-12844
▁ruins	-12845
▁spool	-12846
▁spout	-12847
illiest	-12848
▁Sydney	-12849
▁peaked	-12850
▁shifted	-12851
▁drumming	-12852
▁fearless	-12853
▁frighten	-12854
▁containers	-12855
God	-12856
lse	-12857
nor	-12858
wis	-12859
alie	-12860
hoot	-12861
œGive	-12862
▁Luca	-12863
▁foil	-12864
▁intr	-12865
▁Cocoa	-12866
▁mopped	-12867
œGoodbye	-12868
▁copying	-12869
▁smeared	-12870
▁persuade	-12871
▁savannah	-12872
▁watchful	-12873
orky	-12874
▁mash	-12875
mances	-12876
œToday	-12877
▁Joyce	-12878
▁Otter	-12879
▁brist	-12880
▁ashore	-12881
▁sliced	-12882
▁fortune	-12883
▁harbour	-12884
▁richest	-12885
▁inserted	-12886
▁villager	-12887
▁hairstyle	-12888
▁brightness	-12889
▁inspiration	-12890
Slow	-12891
Soup	-12892
œMax	-12893
▁poof	-12894
▁Snake	-12895
▁conso	-12896
▁tourn	-12897
▁Potato	-12898
▁Smokey	-12899
▁meanie	-12900
▁admires	-12901
▁conflic	-12902
▁leaders	-12903
▁performances	-12904
Bee	-12905
baa	-12906
Turn	-12907
▁gur	-12908
ierce	-12909
odies	-12910
▁Mall	-12911
▁wilt	-12912
▁Luisa	-12913
▁farmy	-12914
▁reeds	-12915
▁Jimmyâ	-12916
▁betray	-12917
▁nailed	-12918
▁Gorilla	-12919
▁Pauline	-12920
▁mirrors	-12921
▁melodies	-12922
▁silliest	-12923
▁subtract	-12924
▁exercised	-12925
▁longingly	-12926
▁Sel	-12927
Ellie	-12928
▁fizz	-12929
▁hasn	-12930
▁nick	-12931
▁wary	-12932
▁sales	-12933
▁Ferris	-12934
▁Months	-12935
▁attend	-12936
▁former	-12937
▁neared	-12938
▁hobbies	-12939
▁majesty	-12940
▁patched	-12941
▁pouting	-12942
▁pranced	-12943
▁farmyard	-12944
▁galaxies	-12945
▁brilliantly	-12946
▁fascination	-12947
Ge	-12948
Po	-12949
aley	-12950
irly	-12951
▁Mer	-12952
▁Saf	-12953
▁Flip	-12954
▁alas	-12955
▁Dreams	-12956
▁Frisky	-12957
▁lapped	-12958
▁scanned	-12959
▁Freckles	-12960
▁sprinkler	-12961
▁unplugged	-12962
mi	-12963
hony	-12964
▁Pump	-12965
▁Wool	-12966
▁Bossy	-12967
▁beats	-12968
htaking	-12969
▁Brandy	-12970
▁Clucky	-12971
▁locket	-12972
▁proven	-12973
▁despair	-12974
▁spinner	-12975
▁internet	-12976
▁meanings	-12977
▁pressure	-12978
▁sensible	-12979
▁transform	-12980
▁breathtaking	-12981
urr	-12982
Aunt	-12983
Toys	-12984
zzle	-12985
akers	-12986
somet	-12987
▁July	-12988
▁tons	-12989
uccess	-12990
▁alike	-12991
▁elves	-12992
▁limit	-12993
▁medium	-12994
▁sauces	-12995
▁rattled	-12996
▁suppose	-12997
▁various	-12998
▁Congratulations	-12999
gum	-13000
aves	-13001
erek	-13002
give	-13003
œyes	-13004
Shall	-13005
orthy	-13006
▁publ	-13007
œGreat	-13008
▁Maryâ	-13009
▁koala	-13010
▁posed	-13011
because	-13012
ception	-13013
ization	-13014
▁attent	-13015
▁typing	-13016
▁Anthony	-13017
▁collects	-13018
▁punishing	-13019
mine	-13020
▁sam	-13021
▁sta	-13022
match	-13023
▁asse	-13024
asting	-13025
▁Derek	-13026
▁Ducks	-13027
▁Trudy	-13028
▁adver	-13029
▁Connor	-13030
▁fellow	-13031
▁neater	-13032
▁piglet	-13033
▁barbers	-13034
▁Scarlett	-13035
▁overcame	-13036
▁raindrop	-13037
▁wrinkles	-13038
Shut	-13039
love	-13040
they	-13041
used	-13042
▁bol	-13043
etern	-13044
▁Gill	-13045
▁Home	-13046
▁Swan	-13047
▁Cluck	-13048
▁Elisa	-13049
▁croaks	-13050
▁kayaks	-13051
▁policy	-13052
▁limping	-13053
▁obvious	-13054
▁visible	-13055
▁gemstone	-13056
▁dandelions	-13057
▁speechless	-13058
▁suggestions	-13059
Su	-13060
new	-13061
▁Op	-13062
mary	-13063
▁Bal	-13064
▁Cal	-13065
nyard	-13066
▁Amie	-13067
▁Evie	-13068
▁Jada	-13069
▁Pass	-13070
▁prec	-13071
▁tags	-13072
Enough	-13073
otions	-13074
▁Danie	-13075
▁Guess	-13076
▁ditch	-13077
▁Forest	-13078
▁Miguel	-13079
▁jigsaw	-13080
▁wailed	-13081
together	-13082
▁lioness	-13083
▁trainer	-13084
shadowing	-13085
▁barnyard	-13086
▁features	-13087
▁glorious	-13088
▁unharmed	-13089
▁addressed	-13090
▁paintbrushes	-13091
Cle	-13092
rer	-13093
Ball	-13094
ancy	-13095
anya	-13096
bulb	-13097
hold	-13098
rows	-13099
▁Ign	-13100
▁Law	-13101
udges	-13102
▁Move	-13103
▁Yuck	-13104
▁etern	-13105
▁Sharks	-13106
▁boldly	-13107
▁layers	-13108
▁rinses	-13109
▁youths	-13110
ireworks	-13111
▁Peeking	-13112
▁beaches	-13113
▁casting	-13114
▁peering	-13115
▁emotions	-13116
▁squashed	-13117
▁medicines	-13118
▁billboards	-13119
Pop	-13120
▁ir	-13121
Baby	-13122
▁Oat	-13123
▁chem	-13124
▁bales	-13125
▁parlor	-13126
▁handyman	-13127
▁professor	-13128
▁reception	-13129
▁smoothness	-13130
▁tit	-13131
▁House	-13132
▁Pixie	-13133
▁giddy	-13134
▁total	-13135
▁eldest	-13136
▁scenes	-13137
▁Natalie	-13138
▁Children	-13139
▁Clarissa	-13140
▁flooding	-13141
▁provides	-13142
▁underwear	-13143
ST	-13144
azzy	-13145
▁brim	-13146
▁dise	-13147
orance	-13148
▁tulip	-13149
▁Tommyâ	-13150
▁badges	-13151
▁cheeky	-13152
▁Trouble	-13153
▁illness	-13154
▁showered	-13155
▁policemen	-13156
▁hummingbird	-13157
ANG	-13158
Big	-13159
Cra	-13160
ubb	-13161
Find	-13162
alue	-13163
meow	-13164
▁Gas	-13165
▁Beet	-13166
ercise	-13167
▁Donny	-13168
entions	-13169
▁clocks	-13170
▁steamy	-13171
▁hideaway	-13172
▁heartbeat	-13173
▁afternoons	-13174
œH	-13175
down	-13176
stem	-13177
test	-13178
▁zap	-13179
Bobby	-13180
▁Slim	-13181
worthy	-13182
▁Night	-13183
▁dumps	-13184
▁plums	-13185
▁Franny	-13186
▁Within	-13187
▁braids	-13188
▁ravens	-13189
▁bedrooms	-13190
▁doghouse	-13191
▁grumpier	-13192
▁Especially	-13193
œJ	-13194
rol	-13195
▁Ac	-13196
▁ome	-13197
▁rum	-13198
Polly	-13199
tails	-13200
▁Comp	-13201
▁Blood	-13202
▁Naomi	-13203
▁leaks	-13204
▁waggy	-13205
▁begins	-13206
▁funnier	-13207
▁bristles	-13208
▁crumbled	-13209
▁describe	-13210
▁pleading	-13211
▁dreamland	-13212
▁mightiest	-13213
▁washcloth	-13214
▁Pal	-13215
▁Tink	-13216
▁cack	-13217
rolled	-13218
▁bared	-13219
▁cases	-13220
▁Amelie	-13221
▁porcup	-13222
treating	-13223
▁betrayed	-13224
▁transport	-13225
▁twitching	-13226
Woo	-13227
gedy	-13228
help	-13229
œNot	-13230
Momma	-13231
Poppy	-13232
urray	-13233
▁Band	-13234
▁Hard	-13235
▁cork	-13236
▁Della	-13237
▁plugs	-13238
goodbye	-13239
osaurus	-13240
▁weaved	-13241
▁Scissors	-13242
▁Swimming	-13243
▁blossoms	-13244
▁hesitate	-13245
▁smoothed	-13246
▁tournament	-13247
▁professional	-13248
▁Foreshadowing	-13249
ela	-13250
▁Ah	-13251
▁Les	-13252
▁Pep	-13253
▁Clay	-13254
▁Dean	-13255
▁Glow	-13256
verest	-13257
▁Horse	-13258
▁curry	-13259
▁eerie	-13260
▁Celery	-13261
▁fished	-13262
▁woolly	-13263
iversary	-13264
▁benefit	-13265
▁blender	-13266
▁flipper	-13267
▁heavens	-13268
▁smudged	-13269
▁flagpole	-13270
▁recently	-13271
▁stumbles	-13272
▁Happiness	-13273
▁Listening	-13274
▁collector	-13275
▁harvested	-13276
▁reflected	-13277
Fun	-13278
cha	-13279
mit	-13280
Pick	-13281
▁Fur	-13282
▁Tur	-13283
ships	-13284
▁numb	-13285
Yippee	-13286
▁Dotty	-13287
▁sixty	-13288
▁passer	-13289
▁soothe	-13290
▁toasty	-13291
▁peddled	-13292
Chocolate	-13293
▁Different	-13294
▁helplessly	-13295
umbo	-13296
Mandy	-13297
maybe	-13298
▁Evan	-13299
▁Said	-13300
▁cabb	-13301
Splash	-13302
▁Paddy	-13303
▁Tanya	-13304
▁chore	-13305
▁occur	-13306
▁pickle	-13307
▁dribble	-13308
▁fabrics	-13309
▁massive	-13310
▁shoebox	-13311
▁upcoming	-13312
▁lightbulb	-13313
▁perspective	-13314
'!	-13315
Mix	-13316
▁pew	-13317
▁crop	-13318
▁olds	-13319
Dinner	-13320
▁Dolls	-13321
▁Throw	-13322
▁ident	-13323
Warning	-13324
▁hunted	-13325
▁tagged	-13326
▁Jenkins	-13327
▁grasses	-13328
▁overall	-13329
▁shivers	-13330
▁bubblegum	-13331
▁conflicts	-13332
▁landscapes	-13333
▁trustworthy	-13334
Mil	-13335
fty	-13336
uns	-13337
Lion	-13338
oray	-13339
▁rese	-13340
jected	-13341
▁bulls	-13342
▁Stacey	-13343
▁public	-13344
▁earring	-13345
▁treetops	-13346
▁mechanics	-13347
▁meaningful	-13348
▁Caterpillar	-13349
for	-13350
urf	-13351
cred	-13352
Bravo	-13353
ollie	-13354
▁lays	-13355
bulous	-13356
▁stash	-13357
▁armour	-13358
▁bossed	-13359
▁canary	-13360
▁skated	-13361
Tomorrow	-13362
▁Scratch	-13363
▁produced	-13364
▁rummaged	-13365
▁splattered	-13366
▁cooperative	-13367
▁unp	-13368
▁Marla	-13369
▁Pasta	-13370
Promise	-13371
œFollow	-13372
▁freeing	-13373
▁prouder	-13374
▁pigtails	-13375
▁observant	-13376
▁porcupine	-13377
▁seatbelts	-13378
▁chessboard	-13379
cum	-13380
lete	-13381
▁Sit	-13382
▁bob	-13383
▁mam	-13384
feree	-13385
▁Caut	-13386
▁Mind	-13387
▁Nala	-13388
▁joys	-13389
▁saws	-13390
▁disre	-13391
▁advert	-13392
▁slings	-13393
▁blouses	-13394
▁referee	-13395
▁fabulous	-13396
▁cleverest	-13397
▁apologizing	-13398
urly	-13399
▁abs	-13400
▁sid	-13401
ensed	-13402
inated	-13403
œSorry	-13404
▁Story	-13405
▁hired	-13406
▁Flower	-13407
▁France	-13408
▁spiral	-13409
▁sparked	-13410
▁quarrels	-13411
▁shoelace	-13412
AC	-13413
?''	-13414
paper	-13415
▁BEEP	-13416
▁burp	-13417
▁cran	-13418
▁Crazy	-13419
▁Laser	-13420
▁Shawn	-13421
▁Fright	-13422
▁Trying	-13423
▁client	-13424
▁croiss	-13425
▁enters	-13426
▁revved	-13427
▁Feather	-13428
▁blasted	-13429
▁seaside	-13430
▁Whatever	-13431
▁believes	-13432
▁clucking	-13433
▁controll	-13434
▁Frightened	-13435
▁mattresses	-13436
▁demonstrated	-13437
Sun	-13438
dad	-13439
Show	-13440
tale	-13441
œDad	-13442
▁Oil	-13443
▁Amyâ	-13444
▁Five	-13445
▁Wind	-13446
▁cure	-13447
▁Berry	-13448
▁frost	-13449
▁planks	-13450
▁grilled	-13451
▁merrily	-13452
▁imagines	-13453
▁sentences	-13454
▁boundaries	-13455
iya	-13456
Park	-13457
crack	-13458
▁East	-13459
▁Sing	-13460
▁Wine	-13461
▁mult	-13462
George	-13463
▁Miller	-13464
▁Snowfl	-13465
▁heeded	-13466
▁omelet	-13467
▁sensed	-13468
ilarious	-13469
▁butcher	-13470
▁evenings	-13471
▁grilling	-13472
▁speakers	-13473
▁Crocodile	-13474
▁motorbike	-13475
▁cartwheels	-13476
▁chalkboard	-13477
œF	-13478
Was	-13479
see	-13480
Woah	-13481
ylie	-13482
Yield	-13483
sized	-13484
▁Chad	-13485
▁Lazy	-13486
▁Titi	-13487
▁gods	-13488
▁Print	-13489
▁clang	-13490
▁cooing	-13491
▁creaky	-13492
▁glossy	-13493
▁igloos	-13494
▁manner	-13495
▁splits	-13496
▁Besides	-13497
▁fancier	-13498
▁cleverly	-13499
▁particip	-13500
▁speckled	-13501
▁swooping	-13502
▁clubhouse	-13503
▁eachother	-13504
▁volunteer	-13505
▁anniversary	-13506
▁extinguisher	-13507
▁transformation	-13508
gh	-13509
boom	-13510
acked	-13511
ierre	-13512
▁educ	-13513
Pretty	-13514
▁punch	-13515
ushroom	-13516
▁Pierre	-13517
▁phrase	-13518
▁cabbage	-13519
▁rancher	-13520
▁wizards	-13521
▁Grandmaâ	-13522
▁smashing	-13523
▁hilarious	-13524
▁slingshot	-13525
▁Cautiously	-13526
▁convincing	-13527
▁politeness	-13528
▁generations	-13529
▁responsibly	-13530
ba	-13531
Share	-13532
Throw	-13533
▁Leon	-13534
▁Pige	-13535
▁brow	-13536
raying	-13537
▁beady	-13538
▁docum	-13539
▁slope	-13540
▁yards	-13541
▁Hunter	-13542
▁Marvin	-13543
▁squirm	-13544
▁weakly	-13545
▁grizzly	-13546
▁toppled	-13547
▁delicately	-13548
Sc	-13549
sk	-13550
bun	-13551
Doll	-13552
▁Seal	-13553
▁Annaâ	-13554
▁Whale	-13555
▁Stripe	-13556
▁rushes	-13557
▁rabbitâ	-13558
▁soothed	-13559
▁avoiding	-13560
▁practise	-13561
▁stamping	-13562
▁numbering	-13563
Sal	-13564
rid	-13565
Life	-13566
eith	-13567
▁Soap	-13568
▁furt	-13569
▁tilt	-13570
œthank	-13571
▁Franc	-13572
▁fiery	-13573
▁Easter	-13574
▁plunge	-13575
▁ripest	-13576
▁snored	-13577
▁untidy	-13578
▁Cooking	-13579
▁farmerâ	-13580
▁skilled	-13581
▁judgement	-13582
▁sharpening	-13583
ubs	-13584
Hmmm	-13585
seat	-13586
▁Pri	-13587
▁Lula	-13588
▁tart	-13589
sticks	-13590
▁Pirate	-13591
▁lowest	-13592
▁repres	-13593
▁console	-13594
▁furthest	-13595
▁prisoner	-13596
▁Mu	-13597
▁Ear	-13598
▁Suc	-13599
▁mow	-13600
ucted	-13601
▁Hors	-13602
▁eyeb	-13603
▁Beaky	-13604
▁Pengu	-13605
▁Porky	-13606
▁ramps	-13607
healthy	-13608
▁spooned	-13609
▁Counting	-13610
▁scowling	-13611
▁encourages	-13612
▁cauliflowers	-13613
vie	-13614
▁Oy	-13615
▁bi	-13616
ilia	-13617
▁nav	-13618
ented	-13619
tyard	-13620
▁Skye	-13621
vation	-13622
▁Dinah	-13623
▁Lunch	-13624
▁Pippy	-13625
▁ducky	-13626
▁pinks	-13627
▁perhaps	-13628
▁handling	-13629
▁briefcase	-13630
▁complaints	-13631
OOM	-13632
yay	-13633
Ahhh	-13634
Lost	-13635
baby	-13636
▁Cory	-13637
Wisdom	-13638
ricket	-13639
▁Turns	-13640
▁grind	-13641
▁Skelet	-13642
▁hiking	-13643
▁shoved	-13644
▁Barkley	-13645
▁Georgia	-13646
▁Popcorn	-13647
▁boredom	-13648
▁overcoming	-13649
▁threatening	-13650
Ta	-13651
hill	-13652
rett	-13653
▁huh	-13654
▁spa	-13655
Water	-13656
rated	-13657
œLucy	-13658
▁Boat	-13659
▁Elen	-13660
▁doze	-13661
▁oval	-13662
▁symp	-13663
orting	-13664
▁Bring	-13665
▁Maggy	-13666
Teacher	-13667
▁French	-13668
▁clicks	-13669
▁ripple	-13670
▁fighter	-13671
▁mumbled	-13672
▁pathways	-13673
▁snacking	-13674
▁strongly	-13675
▁whistler	-13676
▁Buttercup	-13677
▁exception	-13678
▁neighborâ	-13679
La	-13680
Fin	-13681
ata	-13682
Buzz	-13683
four	-13684
Spicy	-13685
▁Allig	-13686
▁Andre	-13687
▁Hilda	-13688
▁Taffy	-13689
▁ached	-13690
▁slows	-13691
▁trink	-13692
▁Julian	-13693
▁Nicole	-13694
▁Stuart	-13695
▁frilly	-13696
▁madder	-13697
▁system	-13698
▁Frances	-13699
▁flowery	-13700
▁racecar	-13701
▁safaris	-13702
▁slowing	-13703
▁Daughter	-13704
▁counters	-13705
▁products	-13706
▁everyoneâ	-13707
▁memorable	-13708
▁souvenirs	-13709
▁storyteller	-13710
▁deliciousness	-13711
pot	-13712
▁"'	-13713
irus	-13714
uffs	-13715
▁Ink	-13716
▁Mya	-13717
▁Lala	-13718
▁jugs	-13719
œThose	-13720
▁bolts	-13721
▁handc	-13722
▁pools	-13723
▁snows	-13724
ophones	-13725
▁grades	-13726
▁poorly	-13727
▁concern	-13728
▁fishies	-13729
▁fluffed	-13730
▁schools	-13731
▁devoured	-13732
▁eternity	-13733
▁hungrily	-13734
▁searches	-13735
▁courtyard	-13736
▁fairytale	-13737
▁cooperation	-13738
œit	-13739
ific	-13740
œlet	-13741
▁rap	-13742
asons	-13743
idden	-13744
nique	-13745
▁Mixy	-13746
▁Minty	-13747
▁flesh	-13748
▁navig	-13749
▁Fierce	-13750
▁sulked	-13751
▁uneven	-13752
▁anchors	-13753
▁choking	-13754
▁leashes	-13755
▁friendsâ	-13756
▁downstream	-13757
▁stubbornly	-13758
▁straightened	-13759
Andy	-13760
back	-13761
▁pom	-13762
emons	-13763
ordan	-13764
▁Fast	-13765
▁Lori	-13766
▁mops	-13767
▁nook	-13768
isitive	-13769
▁parach	-13770
▁pauses	-13771
▁darkest	-13772
▁Watching	-13773
▁backseat	-13774
▁flickering	-13775
▁persevered	-13776
▁Bry	-13777
Clean	-13778
▁Dark	-13779
▁Puzz	-13780
making	-13781
▁Learn	-13782
▁Margie	-13783
▁Mattie	-13784
▁Mousey	-13785
▁tender	-13786
atherine	-13787
▁Pumpkin	-13788
▁besides	-13789
▁carving	-13790
▁daycare	-13791
▁quarter	-13792
▁pondered	-13793
▁strangely	-13794
▁inquisitive	-13795
▁appreciating	-13796
▁celebrations	-13797
hoo	-13798
Frog	-13799
oooo	-13800
stage	-13801
▁role	-13802
elines	-13803
eteria	-13804
▁Boots	-13805
▁Lewis	-13806
▁broad	-13807
▁dents	-13808
▁mazes	-13809
▁mules	-13810
▁Duckie	-13811
▁juices	-13812
▁Holding	-13813
▁chimneys	-13814
▁cafeteria	-13815
▁galloping	-13816
▁sidelines	-13817
Pat	-13818
ini	-13819
pop	-13820
▁tv	-13821
aaah	-13822
▁Fix	-13823
▁Ten	-13824
▁mmm	-13825
Lemon	-13826
poles	-13827
▁Cont	-13828
▁fain	-13829
Almost	-13830
iggles	-13831
▁Dilly	-13832
▁await	-13833
theless	-13834
▁ferris	-13835
▁fitted	-13836
▁Blackie	-13837
▁boatman	-13838
▁tragedy	-13839
▁passerby	-13840
▁tattered	-13841
▁priceless	-13842
▁altogether	-13843
▁adventuring	-13844
▁recommendations	-13845
li	-13846
Gas	-13847
wee	-13848
each	-13849
nold	-13850
occo	-13851
▁gut	-13852
umped	-13853
œTime	-13854
▁sooo	-13855
Cheers	-13856
▁fives	-13857
▁virus	-13858
grandma	-13859
▁ginger	-13860
▁Chicken	-13861
▁Jumping	-13862
▁Mallory	-13863
▁Teacher	-13864
▁longing	-13865
▁scatters	-13866
▁trotting	-13867
▁dashboard	-13868
▁raspberry	-13869
▁recycling	-13870
▁outsmarted	-13871
▁underestimate	-13872
▁hy	-13873
Mail	-13874
▁Cop	-13875
arten	-13876
ieces	-13877
œwhat	-13878
▁Deep	-13879
▁Sack	-13880
▁duty	-13881
▁Emmaâ	-13882
▁Blocks	-13883
▁Harvey	-13884
▁Majest	-13885
▁cannon	-13886
▁miners	-13887
▁snooze	-13888
▁ticked	-13889
▁justice	-13890
▁payment	-13891
▁replying	-13892
▁relaxation	-13893
dely	-13894
▁Sec	-13895
▁ooh	-13896
omped	-13897
œYeah	-13898
▁Lili	-13899
▁Bingo	-13900
▁Sonia	-13901
▁raged	-13902
▁Thereâ	-13903
▁rudely	-13904
▁Somehow	-13905
▁onboard	-13906
▁tucking	-13907
▁scariest	-13908
▁tadpoles	-13909
pler	-13910
star	-13911
teen	-13912
œTake	-13913
▁Lord	-13914
▁Purr	-13915
▁Sher	-13916
▁Tomi	-13917
▁mant	-13918
▁yeah	-13919
▁Flick	-13920
▁drunk	-13921
▁tiptoe	-13922
▁Success	-13923
▁looping	-13924
▁shaping	-13925
Excellent	-13926
▁meantime	-13927
ton	-13928
Ding	-13929
Math	-13930
bear	-13931
woof	-13932
▁ske	-13933
▁Bozo	-13934
▁Morty	-13935
▁grime	-13936
▁jeeps	-13937
▁motiv	-13938
▁shrie	-13939
œThereâ	-13940
▁Majesty	-13941
▁failure	-13942
▁itching	-13943
▁baseballs	-13944
▁ringmaster	-13945
di	-13946
Arr	-13947
Car	-13948
▁aa	-13949
▁wed	-13950
Brown	-13951
erald	-13952
▁Maia	-13953
▁pity	-13954
▁virt	-13955
▁Theyâ	-13956
▁cools	-13957
▁rescu	-13958
▁Tucker	-13959
▁jewell	-13960
▁parcel	-13961
▁posted	-13962
▁bandana	-13963
▁bossing	-13964
▁program	-13965
▁wildest	-13966
sometimes	-13967
▁Painting	-13968
▁Skeleton	-13969
▁fashions	-13970
▁parentsâ	-13971
▁disrespect	-13972
▁satisfying	-13973
▁thundering	-13974
▁dragonflies	-13975
Pay	-13976
Son	-13977
lot	-13978
rude	-13979
unky	-13980
▁axes	-13981
Sounds	-13982
liness	-13983
▁Fruit	-13984
▁Lolly	-13985
ibility	-13986
▁Cotton	-13987
▁aiming	-13988
▁brownies	-13989
▁weekends	-13990
▁misbehave	-13991
moo	-13992
zzz	-13993
Mind	-13994
Spid	-13995
enry	-13996
▁Bla	-13997
affod	-13998
ossom	-13999
yield	-14000
▁sixt	-14001
▁thor	-14002
▁vain	-14003
▁snout	-14004
▁Apples	-14005
▁Bunbun	-14006
▁bakers	-14007
▁glance	-14008
ergarten	-14009
▁Blossom	-14010
▁imitate	-14011
▁orderly	-14012
▁shepher	-14013
▁headband	-14014
▁Snowflake	-14015
▁blossomed	-14016
▁hospitality	-14017
oyd	-14018
▁Coo	-14019
▁Ian	-14020
Could	-14021
▁Bart	-14022
▁Tick	-14023
▁Lilli	-14024
▁Arnold	-14025
▁Jordan	-14026
▁Lancelot	-14027
▁cleanest	-14028
▁roasting	-14029
▁belonging	-14030
▁milkshake	-14031
▁Throughout	-14032
Ar	-14033
ING	-14034
ista	-14035
vable	-14036
celled	-14037
▁Worms	-14038
▁pretz	-14039
▁swarm	-14040
▁Barber	-14041
▁Parrot	-14042
▁floods	-14043
▁jersey	-14044
▁amounts	-14045
▁cradled	-14046
▁drained	-14047
▁jingled	-14048
▁stormed	-14049
organized	-14050
▁fragrant	-14051
▁infected	-14052
▁overalls	-14053
▁treating	-14054
▁education	-14055
▁squishing	-14056
▁microphones	-14057
six	-14058
▁Cand	-14059
▁Deaf	-14060
▁Timâ	-14061
▁lure	-14062
▁nois	-14063
▁whee	-14064
angles	-14065
▁Paint	-14066
▁Paper	-14067
▁cargo	-14068
Believe	-14069
▁Scared	-14070
▁garlic	-14071
▁quench	-14072
▁Tonight	-14073
▁keepers	-14074
▁reasons	-14075
▁sharper	-14076
▁tipping	-14077
▁hallways	-14078
▁shutting	-14079
▁swimmers	-14080
▁classmate	-14081
▁intentions	-14082
▁improvement	-14083
Ad	-14084
lle	-14085
imid	-14086
rove	-14087
suit	-14088
▁Lin	-14089
▁Mari	-14090
▁Bumpy	-14091
▁kilos	-14092
▁rooft	-14093
▁vivid	-14094
keeping	-14095
▁Gerald	-14096
▁Waffle	-14097
▁choked	-14098
▁oblige	-14099
▁tosses	-14100
▁Chester	-14101
▁buttery	-14102
▁sucking	-14103
▁competed	-14104
▁gestured	-14105
▁truthful	-14106
▁affection	-14107
▁triumphant	-14108
!!	-14109
Gr	-14110
tha	-14111
bove	-14112
▁Food	-14113
▁Hide	-14114
▁eyel	-14115
▁Steam	-14116
▁angle	-14117
▁baaed	-14118
▁title	-14119
œExcuse	-14120
▁choppy	-14121
▁hating	-14122
▁dusting	-14123
▁intimid	-14124
▁decrease	-14125
▁jingling	-14126
▁qualities	-14127
▁rainstorm	-14128
Cir	-14129
Six	-14130
Exit	-14131
eight	-14132
▁Cate	-14133
▁litt	-14134
▁pats	-14135
▁span	-14136
▁Bucky	-14137
▁Curly	-14138
▁Margo	-14139
▁ahhed	-14140
▁glint	-14141
▁Peaches	-14142
▁involve	-14143
▁unfreeze	-14144
▁vacuumed	-14145
▁wealthier	-14146
▁barbershop	-14147
▁wonderfully	-14148
wi	-14149
Aha	-14150
▁Sy	-14151
otic	-14152
▁Opal	-14153
▁Shel	-14154
irteen	-14155
▁Acorn	-14156
▁Stars	-14157
▁fifth	-14158
▁mould	-14159
▁radios	-14160
▁spends	-14161
▁Napping	-14162
▁beavers	-14163
▁crunched	-14164
▁shepherd	-14165
▁strapped	-14166
Ban	-14167
Sit	-14168
obi	-14169
ires	-14170
eresa	-14171
▁Need	-14172
▁dawn	-14173
▁heap	-14174
▁vers	-14175
Wheeee	-14176
▁Above	-14177
▁Terri	-14178
▁forms	-14179
▁graze	-14180
behaved	-14181
▁leaked	-14182
▁raging	-14183
▁carrier	-14184
▁cooling	-14185
▁entirely	-14186
▁housework	-14187
ae	-14188
enn	-14189
voc	-14190
pply	-14191
Doggy	-14192
green	-14193
icals	-14194
pling	-14195
▁Cats	-14196
▁Tiff	-14197
▁jogg	-14198
▁tock	-14199
ilizer	-14200
▁Angus	-14201
▁Elise	-14202
▁Fritz	-14203
▁Bertha	-14204
▁Teresa	-14205
▁antics	-14206
▁neighs	-14207
▁piling	-14208
rawberry	-14209
▁compart	-14210
▁escapes	-14211
▁seeming	-14212
▁shortly	-14213
▁swatted	-14214
▁honestly	-14215
▁stranded	-14216
▁cancelled	-14217
▁flexibility	-14218
OW	-14219
Luna	-14220
Soph	-14221
ille	-14222
nock	-14223
unts	-14224
Marry	-14225
▁cert	-14226
assion	-14227
▁Perry	-14228
▁advis	-14229
▁filth	-14230
▁Blinky	-14231
▁Lottie	-14232
▁pranks	-14233
▁doggies	-14234
▁origami	-14235
▁recital	-14236
▁cowgirls	-14237
▁hydrated	-14238
▁thundercl	-14239
▁unhealthy	-14240
Fred	-14241
nine	-14242
Annie	-14243
opard	-14244
▁dren	-14245
▁hamm	-14246
▁Ahead	-14247
▁Lucia	-14248
▁stock	-14249
▁swish	-14250
▁treeâ	-14251
▁vigor	-14252
elderly	-14253
▁Beetle	-14254
▁Square	-14255
▁angles	-14256
▁colony	-14257
▁nuzzle	-14258
▁rhymes	-14259
▁tennis	-14260
▁walker	-14261
▁Honesty	-14262
▁disease	-14263
▁glinted	-14264
▁speeded	-14265
hinoceros	-14266
▁snoozing	-14267
▁shrugging	-14268
▁questioning	-14269
axi	-14270
zer	-14271
pera	-14272
bling	-14273
ifact	-14274
seven	-14275
▁Dash	-14276
▁Golf	-14277
▁Guns	-14278
▁Shop	-14279
▁Soft	-14280
▁bale	-14281
▁eyed	-14282
elease	-14283
▁Going	-14284
▁Novel	-14285
▁accur	-14286
▁concl	-14287
atively	-14288
eliable	-14289
▁Andrea	-14290
▁virtue	-14291
▁bursting	-14292
▁eyebrows	-14293
▁shrieked	-14294
▁stinging	-14295
▁swallows	-14296
▁amazingly	-14297
▁chemicals	-14298
▁gracefulness	-14299
Hoo	-14300
Yep	-14301
blue	-14302
cest	-14303
ddle	-14304
nuts	-14305
▁Dar	-14306
▁Han	-14307
▁Nap	-14308
Mister	-14309
▁Cally	-14310
▁Catch	-14311
▁girly	-14312
▁nudge	-14313
œLittle	-14314
▁Clouds	-14315
▁Marian	-14316
Anything	-14317
▁reporter	-14318
▁apologise	-14319
▁disobeying	-14320
ali	-14321
ayed	-14322
folk	-14323
gant	-14324
oise	-14325
▁Had	-14326
▁cru	-14327
James	-14328
▁beck	-14329
▁oppon	-14330
▁token	-14331
▁Elliot	-14332
▁Francis	-14333
▁Madison	-14334
▁artifact	-14335
▁coldness	-14336
▁Delicious	-14337
▁Spaghetti	-14338
▁gentlemen	-14339
▁marvelous	-14340
.".	-14341
mmm	-14342
Joey	-14343
ques	-14344
▁Gri	-14345
▁Ham	-14346
▁Sis	-14347
▁fal	-14348
asped	-14349
istic	-14350
▁Jana	-14351
shrink	-14352
▁Alina	-14353
▁Elena	-14354
▁Elmer	-14355
▁apply	-14356
coaster	-14357
▁Turkey	-14358
▁ninety	-14359
▁campers	-14360
▁flushed	-14361
▁seventy	-14362
▁splashy	-14363
▁tissues	-14364
▁Mushroom	-14365
▁extended	-14366
▁freshest	-14367
▁receptionist	-14368
▁Ja	-14369
Mike	-14370
ricia	-14371
▁Dana	-14372
▁Mist	-14373
▁Sour	-14374
bridge	-14375
▁Snakes	-14376
▁flyers	-14377
▁confron	-14378
▁dipping	-14379
Butterfly	-14380
▁connects	-14381
▁invented	-14382
▁research	-14383
▁depending	-14384
▁dribbling	-14385
▁scuttling	-14386
▁pleasantly	-14387
▁Nevertheless	-14388
App	-14389
Wee	-14390
nas	-14391
sal	-14392
▁ug	-14393
ican	-14394
oken	-14395
Ollie	-14396
iders	-14397
iwork	-14398
▁Corn	-14399
▁Fern	-14400
▁snor	-14401
▁stam	-14402
Spring	-14403
ooping	-14404
person	-14405
riving	-14406
▁Brett	-14407
▁Swans	-14408
▁dread	-14409
▁engul	-14410
▁rakes	-14411
▁basics	-14412
▁noodle	-14413
▁banners	-14414
▁dinners	-14415
▁marcher	-14416
▁stooped	-14417
▁controls	-14418
▁raccoons	-14419
▁sizzling	-14420
▁handiwork	-14421
▁realising	-14422
▁townsfolk	-14423
▁wheelchair	-14424
▁marketplace	-14425
▁preparation	-14426
AY	-14427
Am	-14428
Hot	-14429
Yup	-14430
list	-14431
▁tus	-14432
enzie	-14433
taker	-14434
œletâ	-14435
▁Long	-14436
▁chor	-14437
atrina	-14438
œYummy	-14439
▁Teach	-14440
▁Browny	-14441
▁Prunes	-14442
▁accord	-14443
▁crowds	-14444
▁daffod	-14445
▁eighty	-14446
▁hopper	-14447
▁portal	-14448
▁Cricket	-14449
▁chomped	-14450
▁judging	-14451
▁violins	-14452
▁thumping	-14453
ES	-14454
!?"	-14455
cra	-14456
ipt	-14457
oped	-14458
peat	-14459
asant	-14460
onica	-14461
▁Fuel	-14462
▁Troy	-14463
▁waft	-14464
▁lasts	-14465
▁skept	-14466
▁stink	-14467
ainbows	-14468
▁divide	-14469
▁snugly	-14470
▁Flexible	-14471
▁Skipping	-14472
▁drenched	-14473
▁lightest	-14474
▁jewellery	-14475
▁strumming	-14476
▁photograph	-14477
▁nervousness	-14478
Pu	-14479
▁,	-14480
igo	-14481
oby	-14482
▁Cy	-14483
Paul	-14484
eezy	-14485
even	-14486
iful	-14487
road	-14488
▁Iris	-14489
▁cham	-14490
▁wars	-14491
itties	-14492
repeat	-14493
▁Ghost	-14494
▁Steak	-14495
▁booms	-14496
▁north	-14497
Whoever	-14498
▁Strong	-14499
▁backup	-14500
▁reluct	-14501
▁yachts	-14502
▁Bananas	-14503
▁adopted	-14504
▁advised	-14505
▁limeade	-14506
▁puffing	-14507
▁Dinosaur	-14508
▁antennas	-14509
▁marrying	-14510
▁previous	-14511
▁classrooms	-14512
▁supervision	-14513
Cook	-14514
ugga	-14515
▁tugs	-14516
ourage	-14517
▁Ariel	-14518
▁Debby	-14519
▁claim	-14520
▁moldy	-14521
▁unity	-14522
▁unple	-14523
knowing	-14524
▁Fisher	-14525
▁fasten	-14526
▁growth	-14527
▁honour	-14528
▁hotdog	-14529
▁rubble	-14530
▁snorke	-14531
▁intense	-14532
▁pausing	-14533
▁puckered	-14534
▁selected	-14535
▁elsewhere	-14536
▁ignorance	-14537
▁reminders	-14538
▁snowstorm	-14539
▁expressing	-14540
▁impatience	-14541
▁regretting	-14542
Jam	-14543
Glad	-14544
ilah	-14545
rive	-14546
wist	-14547
œbut	-14548
▁Jew	-14549
▁Nor	-14550
Books	-14551
Spray	-14552
icier	-14553
obble	-14554
▁feat	-14555
▁fero	-14556
▁Mario	-14557
▁Wheat	-14558
▁swore	-14559
osquito	-14560
▁Saturn	-14561
▁pinned	-14562
▁strive	-14563
▁Washing	-14564
▁Whether	-14565
▁clasped	-14566
▁exhaust	-14567
▁hammock	-14568
▁rafting	-14569
▁cheapest	-14570
▁commands	-14571
▁official	-14572
▁polishes	-14573
▁shimmery	-14574
▁towering	-14575
▁protested	-14576
▁vigorously	-14577
▁safekeeping	-14578
▁superpowers	-14579
▁rollercoaster	-14580
Tre	-14581
Bees	-14582
azor	-14583
oofy	-14584
▁Ser	-14585
Henry	-14586
atops	-14587
fives	-14588
newed	-14589
▁Amer	-14590
▁Tobi	-14591
▁trek	-14592
▁Words	-14593
▁jumpy	-14594
▁trays	-14595
▁unatt	-14596
lvester	-14597
tasting	-14598
▁Wilson	-14599
▁french	-14600
▁holder	-14601
▁opener	-14602
▁sacked	-14603
▁waists	-14604
Fighting	-14605
ceratops	-14606
▁Allowed	-14607
▁fainted	-14608
▁knitted	-14609
▁liquids	-14610
▁obeying	-14611
▁prefere	-14612
▁recycle	-14613
▁reddest	-14614
▁renewed	-14615
▁slumped	-14616
▁modestly	-14617
▁Sylvester	-14618
▁confronted	-14619
▁drawbridge	-14620
▁quarrelled	-14621
aph	-14622
itor	-14623
yuck	-14624
▁nor	-14625
arlie	-14626
▁fert	-14627
▁skid	-14628
▁slug	-14629
Monkey	-14630
nknown	-14631
udging	-14632
▁Amaya	-14633
▁illum	-14634
▁Jayden	-14635
▁Pigeon	-14636
▁spines	-14637
▁Someday	-14638
▁kitties	-14639
▁postbox	-14640
▁untwist	-14641
▁handcuffs	-14642
▁pinecones	-14643
▁predators	-14644
▁detectives	-14645
▁hurricanes	-14646
▁kindergarten	-14647
▁relationships	-14648
ems	-14649
ida	-14650
pom	-14651
Drop	-14652
Fish	-14653
chor	-14654
▁Set	-14655
▁non	-14656
▁rac	-14657
▁Grab	-14658
▁Jing	-14659
▁curb	-14660
olcano	-14661
udying	-14662
▁Miley	-14663
▁aahed	-14664
▁inner	-14665
▁Poison	-14666
▁Sidney	-14667
▁beings	-14668
▁camels	-14669
▁chorus	-14670
▁scents	-14671
▁Fireman	-14672
knowingly	-14673
▁clumsily	-14674
▁streamed	-14675
▁thirteen	-14676
▁arguments	-14677
▁attempted	-14678
▁ferocious	-14679
▁fragrance	-14680
▁trumpeted	-14681
▁storeowner	-14682
▁unpleasant	-14683
▁reassuringly	-14684
word	-14685
▁Ger	-14686
▁Nad	-14687
Whose	-14688
adise	-14689
essed	-14690
▁Fear	-14691
▁owie	-14692
▁Nanny	-14693
▁Willa	-14694
▁chunks	-14695
▁darken	-14696
▁Bridget	-14697
▁Tiffany	-14698
▁feasted	-14699
▁receipt	-14700
▁trolley	-14701
▁resource	-14702
▁Surrender	-14703
▁selection	-14704
▁signature	-14705
▁strengths	-14706
▁ambulances	-14707
▁mentioning	-14708
▁Grandfather	-14709
▁concentration	-14710
▁SP	-14711
▁Emi	-14712
agged	-14713
ragon	-14714
stery	-14715
▁Push	-14716
▁Sharp	-14717
▁Shiny	-14718
▁south	-14719
History	-14720
▁Louisa	-14721
▁awoken	-14722
▁makers	-14723
▁Carrots	-14724
▁Spiders	-14725
▁toasted	-14726
▁Gertrude	-14727
▁explodes	-14728
▁possibly	-14729
▁sparkler	-14730
▁constantly	-14731
▁deliveries	-14732
▁instructed	-14733
▁trespassing	-14734
!!"	-14735
Lad	-14736
bug	-14737
snap	-14738
Danny	-14739
mores	-14740
solve	-14741
œLily	-14742
▁Heel	-14743
ounces	-14744
▁Yield	-14745
▁bases	-14746
▁Lumber	-14747
▁Police	-14748
▁builds	-14749
▁racket	-14750
▁Missile	-14751
▁Octopus	-14752
▁basking	-14753
▁dribbled	-14754
▁grumpily	-14755
▁journals	-14756
▁paradise	-14757
▁preferences	-14758
▁raspberries	-14759
▁competitions	-14760
rd	-14761
awr	-14762
Dave	-14763
▁coy	-14764
azing	-14765
▁disp	-14766
Choose	-14767
itions	-14768
▁gazes	-14769
▁grunt	-14770
▁lambs	-14771
▁mercy	-14772
ingerly	-14773
▁Across	-14774
▁corrid	-14775
▁mateys	-14776
▁swiped	-14777
▁haunted	-14778
▁insides	-14779
▁marches	-14780
▁scruffy	-14781
▁bellowed	-14782
▁supports	-14783
▁daughterâ	-14784
▁clumsiness	-14785
▁scribbling	-14786
Bo	-14787
ssa	-14788
urs	-14789
Pete	-14790
anor	-14791
ption	-14792
rence	-14793
would	-14794
▁fame	-14795
▁reds	-14796
▁Allen	-14797
▁Blaze	-14798
▁Freda	-14799
▁Logan	-14800
▁pyram	-14801
▁wrest	-14802
Perfect	-14803
▁Casper	-14804
▁fidget	-14805
▁recite	-14806
▁strate	-14807
▁stuffy	-14808
Elephant	-14809
▁Charley	-14810
▁blaring	-14811
▁Exercise	-14812
▁findings	-14813
▁perfumes	-14814
▁foolishness	-14815
▁disrespectful	-14816
ua	-14817
Mouse	-14818
▁Cube	-14819
▁Eddy	-14820
▁Grow	-14821
▁tamb	-14822
having	-14823
▁Marry	-14824
[...]
